{"version":"1.0","truncation":null,"padding":null,"added_tokens":[{"id":0,"content":"<PAD>","single_word":false,"lstrip":false,"rstrip":false,"normalized":false,"special":true},{"id":1,"content":"<UNK>","single_word":false,"lstrip":false,"rstrip":false,"normalized":false,"special":true},{"id":2,"content":"<BOS>","single_word":false,"lstrip":false,"rstrip":false,"normalized":false,"special":true},{"id":3,"content":"<EOS>","single_word":false,"lstrip":false,"rstrip":false,"normalized":false,"special":true},{"id":4,"content":"<SEP>","single_word":false,"lstrip":false,"rstrip":false,"normalized":false,"special":true}],"normalizer":{"type":"Sequence","normalizers":[{"type":"Strip","strip_left":true,"strip_right":true},{"type":"NFC"}]},"pre_tokenizer":{"type":"ByteLevel","add_prefix_space":true,"trim_offsets":true,"use_regex":true},"post_processor":{"type":"ByteLevel","add_prefix_space":true,"trim_offsets":true,"use_regex":true},"decoder":{"type":"ByteLevel","add_prefix_space":true,"trim_offsets":true,"use_regex":true},"model":{"type":"BPE","dropout":null,"unk_token":"<UNK>","continuing_subword_prefix":null,"end_of_word_suffix":null,"fuse_unk":false,"byte_fallback":false,"ignore_merges":false,"vocab":{"<PAD>":0,"<UNK>":1,"<BOS>":2,"<EOS>":3,"<SEP>":4,"!":5,"\"":6,"#":7,"$":8,"%":9,"&":10,"'":11,"(":12,")":13,"*":14,"+":15,",":16,"-":17,".":18,"/":19,"0":20,"1":21,"2":22,"3":23,"4":24,"5":25,"6":26,"7":27,"8":28,"9":29,":":30,";":31,"<":32,"=":33,">":34,"?":35,"@":36,"A":37,"B":38,"C":39,"D":40,"E":41,"F":42,"G":43,"H":44,"I":45,"J":46,"K":47,"L":48,"M":49,"N":50,"O":51,"P":52,"Q":53,"R":54,"S":55,"T":56,"U":57,"V":58,"W":59,"X":60,"Y":61,"Z":62,"[":63,"\\":64,"]":65,"^":66,"_":67,"`":68,"a":69,"b":70,"c":71,"d":72,"e":73,"f":74,"g":75,"h":76,"i":77,"j":78,"k":79,"l":80,"m":81,"n":82,"o":83,"p":84,"q":85,"r":86,"s":87,"t":88,"u":89,"v":90,"w":91,"x":92,"y":93,"z":94,"{":95,"|":96,"}":97,"~":98,"¡":99,"¢":100,"£":101,"¤":102,"¥":103,"¦":104,"§":105,"¨":106,"©":107,"ª":108,"«":109,"¬":110,"®":111,"¯":112,"°":113,"±":114,"²":115,"³":116,"´":117,"µ":118,"¶":119,"·":120,"¸":121,"¹":122,"º":123,"»":124,"¼":125,"½":126,"¾":127,"¿":128,"Â":129,"Ã":130,"Ä":131,"Å":132,"È":133,"É":134,"Ê":135,"Ë":136,"Ì":137,"Î":138,"Ï":139,"Ð":140,"Ñ":141,"á":142,"â":143,"ã":144,"ä":145,"ç":146,"î":147,"ï":148,"ð":149,"Ĉ":150,"ĉ":151,"Ċ":152,"č":153,"Ġ":154,"Ģ":155,"ģ":156,"Ĥ":157,"ĥ":158,"Ħ":159,"ħ":160,"Ĩ":161,"ĩ":162,"Ī":163,"ī":164,"Ĭ":165,"ĭ":166,"Į":167,"į":168,"İ":169,"ı":170,"Ĳ":171,"ĳ":172,"Ĵ":173,"ĵ":174,"Ķ":175,"ķ":176,"ĸ":177,"Ĺ":178,"ĺ":179,"Ļ":180,"ļ":181,"Ľ":182,"ľ":183,"Ŀ":184,"ŀ":185,"Ł":186,"ł":187,"Ń":188,"Ġt":189,"in":190,"Ġa":191,"he":192,"on":193,"re":194,"Ġthe":195,"ti":196,"er":197,"Ġc":198,"Ġs":199,"ing":200,"Ġo":201,"le":202,"it":203,"al":204,"nd":205,"Ġw":206,"tion":207,"es":208,"Ġin":209,"Ġp":210,"en":211,"at":212,"or":213,"Ġf":214,"is":215,"Ġof":216,"Ġd":217,"Ġe":218,"Ġand":219,"ou":220,"ra":221,"Ġb":222,"Ġto":223,"Ġm":224,"ro":225,"ic":226,"ar":227,"an":228,"ve":229,"Ġn":230,"ed":231,"Ġth":232,"mp":233,"ly":234,"Ġre":235,"ation":236,"ent":237,"st":238,"Ġh":239,"se":240,"ct":241,"Ġu":242,"ow":243,"qu":244,"et":245,"ce":246,"Ġex":247,"Ġl":248,"ul":249,"ol":250,"Ġcon":251,"ction":252,"Ġon":253,"Ġco":254,"Ġ-":255,"id":256,"ot":257,"ig":258,"Ġy":259,"Ġis":260,"Ġint":261,"ver":262,"Ġ\"":263,"--":264,"if":265,"Ġg":266,"Ġwe":267,"ith":268,"Ġfor":269,"Ġpro":270,"ec":271,"Ġan":272,"um":273,"ur":274,"om":275,"ĠA":276,"Ġ=":277,"ĠT":278,"Ġwith":279,"as":280,"mple":281,"Ġ(":282,"ch":283,"pt":284,"im":285,"il":286,"res":287,"Ġch":288,"Ġv":289,"rit":290,"Ġyou":291,"Ġthat":292,"ate":293,"Ġ1":294,"Ġle":295,"Ġte":296,"ad":297,"Ġsu":298,"ir":299,"nit":300,"Ġal":301,"ations":302,"tic":303,"Ġbe":304,"pp":305,"ĠS":306,"lu":307,"Ġequ":308,"ample":309,"de":310,"\",":311,"Ġit":312,"her":313,"ag":314,"ble":315,"ut":316,"nt":317,"Ġas":318,"Ġinc":319,"si":320,"Ġor":321,"Ġst":322,"tive":323,"iv":324,"du":325,"Ġde":326,"us":327,"oo":328,"Ġexample":329,"Ġha":330,"ĠF":331,"xt":332,"Ġwh":333,"Ġ2":334,"ine":335,"Ġpo":336,"ke":337,"ng":338,"ber":339,"ĠI":340,"ach":341,"Ġthis":342,"Ġare":343,"ist":344,"ore":345,"Ġby":346,"ĠC":347,"Ġexp":348,"ents":349,"Ġhave":350,"Ġnum":351,"Ġ+":352,"rac":353,"ook":354,"ĠW":355,"Ġwrit":356,"Ġinclu":357,"eg":358,"Ġsub":359,"ure":360,"ri":361,"am":362,"ĠM":363,"ru":364,"Ġcha":365,"out":366,"el":367,"ates":368,"Ġcan":369,"Ġus":370,"Ġnumber":371,"Ġinclude":372,"----":373,"Ġtext":374,"igh":375,"'s":376,"un":377,"ain":378,"red":379,"ĠĠ":380,"book":381,"Ġ$":382,"Ġtextbook":383,"ect":384,"ĠE":385,"ĠL":386,"pter":387,"Ġchapter":388,"Ġen":389,"Ġad":390,"oc":391,"ons":392,"ew":393,"alu":394,"Ġ\\":395,"ĠR":396,"low":397,"ial":398,"ity":399,"led":400,"Ġwhe":401,"ay":402,"ctor":403,"pic":404,"ous":405,"ight":406,"Ġx":407,"imp":408,"ms":409,"\".":410,"les":411,"int":412,"th":413,"Ġhe":414,"rodu":415,"ctions":416,"Ġ3":417,"Ġif":418,"Ġat":419,"Ġcont":420,"and":421,"ĠThe":422,"ang":423,"ĠB":424,"cul":425,"pe":426,"Ġar":427,"Ġfun":428,"ich":429,"rom":430,"tical":431,"Ġr":432,"ant":433,"ĠP":434,"os":435,"ill":436,"Ġvalu":437,"Ġapp":438,"able":439,"Ġwriting":440,"ari":441,"ere":442,"Ġintrodu":443,"ding":444,"li":445,"Ġse":446,"ers":447,"Ġcal":448,"ac":449,"Ġequations":450,"Ġmat":451,"ong":452,"ess":453,"our":454,"Ġsp":455,"rite":456,"ss":457,"ry":458,"Unit":459,"Ġwithout":460,"Ġtopic":461,"aching":462,"ide":463,"aging":464,"ulti":465,"Ġ|":466,"Ġnot":467,"Ġfrom":468,"Ġtit":469,"Ġsh":470,"Ġev":471,"ld":472,"ally":473,"Ġteaching":474,"Ġtextbooks":475,"cept":476,"00":477,"Ġra":478,"Ġmo":479,"Ġcomp":480,"ther":481,"di":482,"em":483,"rou":484,"Ġres":485,"Ġunit":486,"ĠD":487,"ĠH":488,"Ġcalcul":489,"Ġli":490,"enti":491,"Ġtw":492,"Ġdet":493,"ep":494,"ultip":495,"nder":496,"iz":497,"ific":498,"Ġinteg":499,"Ġsol":500,"Ġver":501,"ative":502,"ĠTh":503,"lo":504,"Ġthese":505,"Ġac":506,"ns":507,"Ġinto":508,"ady":509,"Ġfin":510,"Ġpoint":511,"We":512,"Ġform":513,"Ġme":514,"ter":515,"Ġline":516,"ollow":517,"Ġpl":518,"Ġour":519,"}{":520,"are":521,"Ġtwo":522,"Ġ4":523,"Ġwill":524,"gh":525,"Ġfollow":526,"ds":527,"Ġrep":528,"ome":529,"ip":530,"ines":531,"als":532,"irst":533,"ric":534,"frac":535,"ving":536,"Ġab":537,"per":538,"Ġhow":539,"ĠN":540,"Ġfa":541,"ution":542,"ph":543,"lic":544,"ory":545,"vered":546,"ration":547,"Ġ0":548,"ge":549,"Ġinst":550,"Ġwor":551,"Ġper":552,"sion":553,"art":554,"ready":555,"Ġalready":556,"Ġcovered":557,"alle":558,"Ġk":559,"Ġqu":560,"ile":561,"Ġyour":562,"Ġunder":563,"Ġbet":564,"Ġcom":565,"Ġvari":566,"for":567,"ance":568,"Ġone":569,"erm":570,"Ġtheir":571,"all":572,"Ġconcept":573,"fere":574,"one":575,"Ġfra":576,"ties":577,"ĠSt":578,"âĢ":579,"Ġlike":580,"Ġprac":581,"ment":582,"ating":583,"other":584,"Ġ5":585,"Ġcons":586,"Ġexpres":587,"Ġless":588,"ject":589,"Ġcur":590,"Ġph":591,"Ġspec":592,"ering":593,"Ġrepres":594,"oth":595,"ses":596,"Ġsimp":597,"Ġdec":598,"ated":599,"og":600,"Ġlet":601,"ies":602,"we":603,"),":604,"ound":605,"ves":606,"ab":607,"Ġnumbers":608,"Ġgra":609,"Ġcre":610,"Ġmultip":611,"Ġne":612,"Ġdif":613,"Ġrel":614,"Ġdi":615,"Ġuse":616,"Ġvalue":617,"Ġits":618,"Ġsy":619,"Ġfunction":620,"ween":621,"ĠFor":622,"ase":623,"\\_":624,"ak":625,"Ġbetween":626,"Ġexamples":627,"Ġtra":628,"Ġinter":629,"Ġwhen":630,").":631,"Ġeach":632,"unit":633,"Ġanother":634,"ult":635,"Ġboth":636,"sel":637,"ĠIn":638,"ice":639,"Ġwhich":640,"ould":641,"Ġproble":642,"ff":643,"Ġoff":644,"Ġro":645,"ocus":646,"--------":647,"Ġdiv":648,"Ġadv":649,"stand":650,"Ġwhile":651,"ces":652,"of":653,"Ġequation":654,"Ġnew":655,"Ġfirst":656,"ign":657,"AA":658,"Ġke":659,"ĠO":660,"Ġeng":661,"rough":662,"pon":663,"lied":664,"Ġhist":665,"alleng":666,"Ġlong":667,"Ġusing":668,"ĠThis":669,"ĠApp":670,"ary":671,"Ġchalleng":672,"te":673,"Ġdiffere":674,"Ġspecific":675,"Ġtry":676,"..":677,"erial":678,"Ġ6":679,"form":680,"ĠUnit":681,"self":682,"Ġdis":683,"Ġfactor":684,"Ġang":685,"now":686,"ĠTo":687,"Ġarc":688,"Ġintroduction":689,"ince":690,"Ġimp":691,"Ġwhere":692,"Ġsc":693,"ace":694,"arra":695,"vol":696,"ai":697,"dition":698,"Ġcalculus":699,"Ġfunctions":700,"Ġmaterial":701,"ĠG":702,"Ġcour":703,"Ġout":704,"ence":705,"Ġhistory":706,"Ġnam":707,"Ġevents":708,"est":709,"rent":710,"Ġfollowing":711,"Ġitself":712,"ruction":713,"Ġun":714,"Ġcontent":715,"Ġproof":716,"Ġintegration":717,"ĠĠĠĠ":718,"Ġdist":719,"Ġsuch":720,"'re":721,"ust":722,"ose":723,"Ġcreate":724,"fin":725,"igor":726,"Ġcourse":727,"ĠStates":728,"Ġcover":729,"lines":730,"ĠUnited":731,"Ġwrite":732,"Ġhead":733,"Ġtim":734,"Ġob":735,"igorous":736,"Ġkey":737,"Ġunderstand":738,"ll":739,"ĠAs":740,"Ġgiv":741,"age":742,"Ġsimply":743,"tra":744,"ĠEng":745,"vi":746,"lying":747,"ator":748,"Ġmore":749,"ount":750,"Ġsubject":751,"Ġpractical":752,"ort":753,"Ġcomple":754,"Ġnarra":755,"Ġphra":756,"$$":757,"Ġchallenging":758,"Ġproofs":759,"ailed":760,"pth":761,"fore":762,"Ġpure":763,"ewis":764,"Ġtone":765,"Ġdepth":766,"Ġengaging":767,"ĠWrite":768,"ctory":769,"ĠLewis":770,"âĪ":771,"Ġvery":772,"Ġphrases":773,"Ġtitle":774,"Ġnow":775,"Ġnarrative":776,"Ġdetailed":777,"Ġoffering":778,"ider":779,"Ġtrying":780,"Ġnames":781,"ael":782,"Do":783,"ichael":784,"Write":785,"ĠMichael":786,"tim":787,"ĠFocus":788,"Ġinstruction":789,"Ġdates":790,"Ġadvice":791,"ĠApplied":792,"Ġintroductory":793,"Ġpurely":794,"Ġtitled":795,"Ġheadlines":796,"ĠEngaging":797,"ĠRigorous":798,"Ġcurrent":799,"Ġthrough":800,"Ġbec":801,"Ġother":802,"Ġthere":803,"Ġinvol":804,"Ġdo":805,"Ġthey":806,"Ġknow":807,"ap":808,"ree":809,"mon":810,"ion":811,"rib":812,"Ġprodu":813,"Ġresult":814,"Ġfind":815,"ever":816,"ati":817,"Ġsyst":818,"ite":819,"Ġden":820,"ides":821,"Ġsome":822,"hem":823,"sions":824,"tit":825,"Ġ&":826,"Ġrepresent":827,"Ġ/":828,"Ġover":829,"Ġma":830,"Ġ7":831,"Ġall":832,"ard":833,"Ġso":834,"Ġman":835,"ential":836,"omet":837,"Ġpar":838,"Ġcor":839,"Ġsqu":840,"Ġgraph":841,"Ġhas":842,"ne":843,"ical":844,"ular":845,"Ġvalues":846,"nce":847,"tain":848,"lect":849,"ft":850,"egative":851,"Ġtime":852,"tice":853,"ures":854,"ting":855,"Ġmean":856,"Ġany":857,"Ġthan":858,"Ġbas":859,"ack":860,"Ġrem":861,"Ġposi":862,"Ġconst":863,"Ġpre":864,"Ġdecim":865,"ud":866,"Ġfractions":867,")^":868,"Ġthem":869,"Ġtrans":870,"ale":871,"ĠU":872,"Ġacc":873,"Ġ8":874,"Ġz":875,"Ġchang":876,"Ġvariable":877,"Ġequal":878,"Ġ10":879,"ute":880,"hen":881,"Ġappro":882,"Ġmeas":883,"bra":884,"ue":885,"Ġneed":886,"ond":887,"omial":888,"hip":889,"Ġwithin":890,"Ġexpl":891,"ual":892,"Ġup":893,"Ġtri":894,"ub":895,"Ġlessons":896,"Ġcomplex":897,"angle":898,"Ġsum":899,"irc":900,"In":901,"Ġthen":902,"Ġabout":903,"ngth":904,"ility":905,"pend":906,"Ġproblems":907,"Ġpa":908,"ame":909,"ten":910,"od":911,"Ġ9":912,"Ġnegative":913,"tal":914,"Now":915,"Ġconsider":916,"ĠWe":917,"ĠBy":918,"uring":919,"ĠInt":920,"Ġwork":921,"Ġreg":922,"sing":923,"ater":924,"cess":925,"Ġwho":926,"Ġsolution":927,"Ġreal":928,"ationship":929,"Ġunderstanding":930,"Ġgiven":931,"ĠHow":932,"tional":933,"Ġdeterm":934,"so":935,"ys":936,"The":937,"omin":938,"Ġrec":939,"ities":940,"act":941,"Ġpoints":942,"its":943,"Ġrelationship":944,"Ġformul":945,"Ġproper":946,"Ġconc":947,"Ġ*":948,"Ġlength":949,"Ġind":950,"ful":951,"au":952,"ord":953,"Ġallow":954,"Ġmet":955,"aking":956,"Ġright":957,"Ġbut":958,"Ġpr":959,"Ġj":960,"lication":961,"ower":962,"Ġter":963,"vel":964,"Ġalso":965,"reas":966,"ell":967,"Ġdes":968,"hes":969,"ments":970,"ech":971,"Ġsign":972,"ici":973,"Ġno":974,"tial":975,"tions":976,"Ġsubtra":977,"Ġarea":978,"Ġwhat":979,"Ġsame":980,"ero":981,"Ġlim":982,"Ġdefin":983,"gebra":984,"Ġru":985,"iel":986,"hema":987,"Ġcirc":988,"igin":989,"ays":990,"Ġins":991,"To":992,"ath":993,"Ġexpon":994,"Ġgen":995,"ast":996,"Ġsides":997,"Ġfraction":998,"Ġsquare":999,"Ġam":1000,"ify":1001,"lope":1002,"ominator":1003,"ems":1004,"arn":1005,"Ġstud":1006,"Ġpres":1007,"xim":1008,"}\\":1009,"Ġterms":1010,"Ġset":1011,"olum":1012,"der":1013,"Ġlinear":1014,"Ġcommon":1015,"Ġ\\*":1016,"Ġcl":1017,"Ġty":1018,"ise":1019,"Ġder":1020,"Ġangle":1021,"Let":1022,"pec":1023,"row":1024,"Ġdenominator":1025,"Ġser":1026,"Ġorigin":1027,"Ġexpressions":1028,"tics":1029,"arg":1030,"rt":1031,"Ġrepresents":1032,"Ġsystem":1033,"Ġid":1034,"Ġpart":1035,"Ġget":1036,"Ġmay":1037,"respon":1038,"over":1039,"Ġprov":1040,"own":1041,"ĠAd":1042,"ately":1043,"Ġdifferent":1044,"Ġformula":1045,"ext":1046,"Ġsec":1047,"Ġfe":1048,"Ġwould":1049,"rate":1050,"Ġdat":1051,"$.":1052,"vr":1053,"ps":1054,"entif":1055,"Ġcorrespon":1056,"ens":1057,"ĠHowever":1058,"Ġproblem":1059,"ruct":1060,"qrt":1061,"Ġexpression":1062,"ĠâĢ":1063,"AAAA":1064,"Ġunits":1065,"Ġpoly":1066,"xample":1067,"Ġvarious":1068,"imil":1069,"und":1070,"{\\":1071,"iding":1072,"Ġdisc":1073,"Ġthree":1074,"ĠV":1075,"Ġlesson":1076,"Ġconstant":1077,"por":1078,"Ġremain":1079,"10":1080,"ark":1081,"ause":1082,"ced":1083,"Ġsm":1084,"ffici":1085,"Ġside":1086,"Ġsince":1087,"Ġ$\\":1088,"ass":1089,"Ġpositive":1090,"Ġprocess":1091,"equ":1092,"Ġdire":1093,"imilar":1094,"ize":1095,"Ġmathema":1096,"adra":1097,"ved":1098,"ability":1099,"iqu":1100,"ision":1101,"Ġref":1102,"refore":1103,"__":1104,"ĠCon":1105,"eomet":1106,"ax":1107,"Ġmeasure":1108,"ross":1109,"nomial":1110,"Ġrequ":1111,"Ġwhole":1112,"Th":1113,"omp":1114,"Ġslope":1115,"Ġterm":1116,"Ġplace":1117,"urther":1118,"Ġconver":1119,"me":1120,"Ġproduct":1121,"Ġanal":1122,"omes":1123,"del":1124,"Ġmin":1125,"Ġinvolving":1126,"ĠÃ":1127,"Ġzero":1128,"Ġexplore":1129,"ty":1130,"olog":1131,"Ġstart":1132,"Ġangles":1133,"Ġaddition":1134,"Ġmust":1135,"Ġwant":1136,"(\\":1137,"ear":1138,"ĠIf":1139,"Ġcar":1140,"Ġpower":1141,"Ġimport":1142,"You":1143,"Ġass":1144,"igit":1145,"Ġdata":1146,"Ġlead":1147,"ining":1148,"))":1149,"Ġstep":1150,"$,":1151,"cc":1152,"equal":1153,"Ġonly":1154,"Ġmany":1155,"Ġderiv":1156,"the":1157,"Ġlearn":1158,"Ġ(-":1159,"ane":1160,"âĤ":1161,"cting":1162,"put":1163,"ics":1164,"Ġag":1165,"ix":1166,"Ġtotal":1167,"fter":1168,"Ġincreas":1169,"St":1170,"Ġcent":1171,"enc":1172,"Ġgrou":1173,"ia":1174,"Ġvariables":1175,"echn":1176,"Ġnumer":1177,"Ġchange":1178,"ordin":1179,"ots":1180,"ĠThese":1181,"ĠÃĹ":1182,"Ġhel":1183,"----------------":1184,"Ġfactors":1185,"Ġadd":1186,"ough":1187,"stit":1188,"ĠTopic":1189,"get":1190,"qq":1191,"Ġquadra":1192,"ors":1193,"ulation":1194,"ĠNow":1195,"ĠâĢĵ":1196,"erg":1197,"Ġinterv":1198,"Ġrequi":1199,"Ġim":1200,"Ġinequal":1201,"Ġlook":1202,"Ġtechn":1203,"Ġpolynomial":1204,"Ġalong":1205,"ake":1206,"Ġdue":1207,"ĠLet":1208,"atter":1209,"verse":1210,"Ġbeg":1211,"Ġeven":1212,"Ġ12":1213,"Ġshould":1214,"Ġdecimal":1215,"wor":1216,"formation":1217,"Ġelect":1218,"Ġpropor":1219,"ral":1220,"Ġsupp":1221,"ĠIt":1222,"very":1223,"ĠLess":1224,")(":1225,"Ġgener":1226,"ood":1227,"ks":1228,"Ġmeth":1229,"Ġend":1230,"ĠâĪ":1231,"Ġhy":1232,"Ġsee":1233,"}}":1234,"Ġrate":1235,"pes":1236,"Ġsmall":1237,"**":1238,"Ġmodel":1239,"Ġrect":1240,"Ġoriginal":1241,"Ġbecause":1242,"Ġpartic":1243,"cial":1244,"Ġdown":1245,"Example":1246,"Ġsecond":1247,"Ġquan":1248,"Ġdetermine":1249,"entify":1250,"ĠWhen":1251,"sqrt":1252,"Ġsur":1253,"ove":1254,"Ġconf":1255,"ead":1256,"Ġve":1257,"Ġsolve":1258,"Ġdistrib":1259,"Ġoper":1260,"Ġcomb":1261,"Ġback":1262,"Ġsk":1263,"Ġrati":1264,"000":1265,"Ġsimpl":1266,"op":1267,"ature":1268,"Ġimportant":1269,"ans":1270,"Ġlines":1271,"âĢĻ":1272,"^{":1273,"Ġbefore":1274,"Ġmake":1275,"Ġbased":1276,"Ġword":1277,"ivale":1278,"ĠMultip":1279,"Step":1280,"Ġduring":1281,"Ġdeg":1282,"Ġinf":1283,"ĠSince":1284,"Ġbegin":1285,"=\\":1286,"ib":1287,"angles":1288,"Ġ<":1289,"Ġop":1290,"Ġthose":1291,"Ġcontin":1292,"(-":1293,"ram":1294,"Ġâ":1295,"ive":1296,"12":1297,"ox":1298,"Mz":1299,"Ġdecimals":1300,"Ġexam":1301,"Ġdoes":1302,"ĠTherefore":1303,"atis":1304,"sible":1305,"Ġcol":1306,"Ġfurther":1307,"pre":1308,"ivid":1309,"Ġtriangle":1310,"Ġcell":1311,"Ġconcepts":1312,"Ġcalculate":1313,"Ġgeomet":1314,"olume":1315,"raw":1316,"Ġevery":1317,"ually":1318,"ÏĢ":1319,"Ġmultiplication":1320,"ently":1321,"MzMz":1322,"aring":1323,"yz":1324,"ĠPro":1325,"Ġcost":1326,"Ġini":1327,"Ġocc":1328,"ĠWh":1329,"Ġgre":1330,"inc":1331,"Ġstudents":1332,"Ġradi":1333,"cos":1334,"Ġindivid":1335,"Ġcontain":1336,"Ġleft":1337,"Ġ20":1338,"Ġbeh":1339,"king":1340,"Ġbu":1341,"Ġgrow":1342,"ivalent":1343,"Ġpos":1344,")\\":1345,")/":1346,"end":1347,"Ġmeans":1348,"Ġproperties":1349,"Ġconclu":1350,"Ġmathematical":1351,"ffect":1352,"ser":1353,"Ġtoget":1354,"Ġtogether":1355,"Ġmight":1356,"ts":1357,"Ġwas":1358,"ields":1359,"Ġcircle":1360,"lim":1361,"Ġfinding":1362,"bol":1363,"con":1364,"lications":1365,"Ġvector":1366,"Ġ\\(":1367,"Ġstand":1368,"Ġfollows":1369,"....":1370,"Ġsolutions":1371,"Â²":1372,"Ġafter":1373,"Ġpric":1374,"inter":1375,"Ġpractice":1376,"Ġdistance":1377,"Ġsystems":1378,"Ġrational":1379,"Ġhelp":1380,"Ġmultiple":1381,"Ġallows":1382,"ists":1383,"ward":1384,"ind":1385,"Ġapply":1386,"imple":1387,"Ġstruct":1388,"Ġbase":1389,"sin":1390,"Ġdifferen":1391,"Ġwhether":1392,"Ġpot":1393,"ĠHere":1394,"Ġvis":1395,"Ġlimit":1396,"ĠÎ":1397,"Ġinde":1398,"ven":1399,"ail":1400,"Ġbl":1401,"Ġdivision":1402,"Ġloc":1403,"Ġrelationships":1404,"Ġalgebra":1405,"Ġexpress":1406,"Ġabove":1407,"Ġcorresponding":1408,"Ġrule":1409,"Ġtechniqu":1410,"Ġpol":1411,"world":1412,"ions":1413,"Ġcoordin":1414,"sol":1415,"right":1416,"Ġpop":1417,"ergy":1418,"---":1419,"Ġobtain":1420,"Ġmove":1421,"here":1422,"orem":1423,"Ġobject":1424,"Ġes":1425,"'(":1426,"ational":1427,"ĠAl":1428,"Ġfound":1429,"ember":1430,"Ġapproxim":1431,"Ġhor":1432,"Ġnon":1433,"):":1434,"Ġdivide":1435,"ition":1436,"ta":1437,"Ġopp":1438,"ental":1439,"ĠEx":1440,"Ġpair":1441,"Ġvertical":1442,"pl":1443,"ards":1444,"Ġsolving":1445,"effici":1446,"ract":1447,"ases":1448,"Ġsumm":1449,"This":1450,"ĠMo":1451,"Ġskill":1452,"Ġcru":1453,"Ġprob":1454,"Ġacross":1455,"``":1456,"âĢĶ":1457,"Ġmark":1458,"Ġsha":1459,"ron":1460,"lop":1461,"Ġpatter":1462,"Ġcount":1463,"Ġcondition":1464,"ural":1465,"Ġtr":1466,"oci":1467,"Ġlevel":1468,"Ġdepend":1469,"Ġoccur":1470,"Ġsever":1471,"lust":1472,"Ġcoeffici":1473,"Ġcase":1474,"ither":1475,"Ġderivative":1476,"Â°":1477,"Ġfour":1478,"ided":1479,"Ġquadratic":1480,"itu":1481,"Ġ18":1482,"Ġdeep":1483,"Ġinformation":1484,"ings":1485,"ĠĠĠĠĠĠĠĠ":1486,"intercept":1487,"'t":1488,"aw":1489,"Ġsignific":1490,"sure":1491,"Ġcould":1492,"Ġtake":1493,"Ġcrucial":1494,")=":1495,"velop":1496,"Ġscen":1497,"Ġgives":1498,"Ġenergy":1499,"sive":1500,"Ġseries":1501,"Ġmed":1502,"Ġtable":1503,"Ġgo":1504,"Ġlog":1505,"Ġadding":1506,"ish":1507,"vious":1508,"par":1509,"vity":1510,"Ġear":1511,"Ġknown":1512,"izon":1513,"Ġjust":1514,"ĠJ":1515,"Ġobser":1516,"Ġ>":1517,"Ġseveral":1518,"alcul":1519,"hed":1520,"Ġbecomes":1521,"Ġused":1522,"Ġess":1523,"left":1524,"oint":1525,"ways":1526,"Ġparts":1527,"Ġresults":1528,"Ġaround":1529,"ĠQ":1530,"akes":1531,"ĠSol":1532,"arge":1533,"Ġvolume":1534,"Ġsimilar":1535,"Ġdirect":1536,"urn":1537,"Ġdifference":1538,"less":1539,"Ġcos":1540,"Ġdraw":1541,"ism":1542,"ertain":1543,"Ġmain":1544,"raph":1545,"Ġheight":1546,"Ġtypes":1547,"Ġtest":1548,"ization":1549,"incip":1550,"Ġdividing":1551,"Ġsequ":1552,"wer":1553,"Ġ100":1554,"Ġlarg":1555,"ĠSo":1556,"Ġdevelop":1557,"ie":1558,"avi":1559,"Ġidentify":1560,"##":1561,"times":1562,"inally":1563,"izing":1564,"Ġsimple":1565,"Ġincluding":1566,"text":1567,"Ġans":1568,"Ġprevious":1569,"Ġamount":1570,"ote":1571,"ĠLesson":1572,"upp":1573,"view":1574,"axis":1575,"ĠK":1576,"Ġsubstit":1577,"Ġway":1578,"Ġanalyz":1579,"Ġele":1580,"digit":1581,"ĠAn":1582,"Ġagain":1583,"Ġresulting":1584,"roduction":1585,"ency":1586,"Ġoften":1587,"tively":1588,"to":1589,"Ġequivalent":1590,"Ġhand":1591,"15":1592,"crib":1593,"ology":1594,"ost":1595,"Ġca":1596,"osite":1597,"Ġsubtracting":1598,"ances":1599,"Ġperform":1600,"Ġprincip":1601,"Ġsym":1602,"Ġâī":1603,"cle":1604,"Ġcontinu":1605,"Ġact":1606,"Ġrea":1607,"Ġinvolves":1608,"Ġten":1609,"ĠCh":1610,"onsider":1611,"aling":1612,"uch":1613,"Ġmaking":1614,"Ġscenari":1615,"ination":1616,"atives":1617,"Ġfig":1618,"Ġhal":1619,"rees":1620,"ĠComp":1621,"Ġinterval":1622,"Ġhorizon":1623,"Ġexponential":1624,"}$":1625,"Ġpossible":1626,"til":1627,"Ġmon":1628,"Ġinitial":1629,"Ġhour":1630,"uting":1631,"solute":1632,"ĠRec":1633,"Ġide":1634,"Ġrang":1635,"Ġsitu":1636,"ĠThus":1637,"Ġil":1638,"Ġparalle":1639,"agine":1640,"Ġ[":1641,"ling":1642,"cd":1643,"Ġcap":1644,"Ġbecome":1645,"wards":1646,"Ġnumerator":1647,"pect":1648,"Ġindic":1649,"Ġessential":1650,"Ġmultiplying":1651,"Ġinsight":1652,"Ġproportional":1653,"met":1654,"Ġfocus":1655,"Ġbeing":1656,"Ġtriangles":1657,"Ġ15":1658,"Ġestim":1659,"Ġfund":1660,"Ġillust":1661,"uppose":1662,"Ġsin":1663,"AAAAAAAA":1664,"Ġexper":1665,"Ġmost":1666,"sequ":1667,"Ġcompon":1668,"ences":1669,"As":1670,"Ġeas":1671,"Ġredu":1672,"yst":1673,"Ġgrowth":1674,"mer":1675,"Ġsteps":1676,"Ġcare":1677,"Ġparticular":1678,"Ġorder":1679,"Ġemp":1680,"Ġalways":1681,".,":1682,"rateg":1683,"Ġtransform":1684,"co":1685,"Ġsection":1686,"First":1687,"Ġcertain":1688,"Ġchanges":1689,"Ġbre":1690,"ĠSpec":1691,"Ġeither":1692,"Ġprobability":1693,"Ġfinal":1694,"Ġmag":1695,"gan":1696,"Ġleading":1697,"Ġupon":1698,"Ġplane":1699,"Ġgreater":1700,"Ġdistribution":1701,"For":1702,"Ġcurve":1703,"conom":1704,"Ġprof":1705,"Ġhigh":1706,"gg":1707,"Ġexact":1708,"Ġlearned":1709,"Ġapplying":1710,"ĠWith":1711,"Ġsignificant":1712,"cing":1713,"gen":1714,"ears":1715,"Ġwere":1716,"ogn":1717,"Ġbehavi":1718,"umber":1719,"Ġproperty":1720,"ined":1721,"lec":1722,"Ġcalled":1723,"Ġtru":1724,"25":1725,"Ġinfin":1726,"Ġoperations":1727,"ife":1728,"Ġsing":1729,"dule":1730,"ĠUsing":1731,"tern":1732,"Ġshap":1733,"Ġlarger":1734,"Ġanswer":1735,"Ġinequalities":1736,"fect":1737,"valu":1738,"Ġalgebraic":1739,"pi":1740,"Ġequals":1741,"ĠRe":1742,"erest":1743,"come":1744,"Ġdem":1745,"Ġstra":1746,"Ġdel":1747,"cdot":1748,"ording":1749,"Ġindividual":1750,"Ġsa":1751,"11":1752,"Ġworld":1753,"Ġdegrees":1754,"ian":1755,"Next":1756,"ted":1757,"Ġax":1758,"Ġrelated":1759,"Ġbuil":1760,"Ġseem":1761,"nect":1762,"Ġwell":1763,"rix":1764,"Ġsqua":1765,"Ġcharact":1766,"Ġstandard":1767,"Ġpotential":1768,"Ġspe":1769,"ning":1770,"Ġtechniques":1771,"ixed":1772,"Ġyields":1773,"rease":1774,"Ġdiag":1775,"Ġhere":1776,"Ġsmaller":1777,"ĠOne":1778,"18":1779,"Ġprim":1780,"Ġsti":1781,"ĠAddition":1782,"Ġinstead":1783,"Î¸":1784,"Ġratio":1785,"Ġhig":1786,"Ġabsolute":1787,"Ġenc":1788,"Ġroot":1789,"Ġposition":1790,"eter":1791,"ci":1792,"Ġinstance":1793,"Ġtool":1794,"Ġpopulation":1795,"ins":1796,"Ġcy":1797,"Ġmultiply":1798,"Ġsingle":1799,"Ġforms":1800,"Ġtemp":1801,"Ġtheorem":1802,"ick":1803,"Ġapplications":1804,"||":1805,"Ġconditions":1806,"ield":1807,"Ġeconom":1808,"Ġscale":1809,"ĠAdding":1810,"Ġexplor":1811,"Ġtimes":1812,"rect":1813,"ĠAt":1814,"Ġevalu":1815,"Ġtre":1816,"Ġgeometric":1817,"Ġworking":1818,"ecess":1819,"Ġprice":1820,"Ġrelative":1821,"Ġones":1822,"arent":1823,"Ġquantit":1824,"imen":1825,"Ġcontext":1826,"ages":1827,"Ġrespec":1828,"Ġinterse":1829,"Ġmethod":1830,"50":1831,"Ġconclusion":1832,"\\)":1833,"Ġsolid":1834,"Ġmeaning":1835,"orm":1836,"ized":1837,"Ġdenominators":1838,"Ġsubtraction":1839,"Ġcomm":1840,"qqqq":1841,"Ġbi":1842,"ods":1843,"amental":1844,"Ġtrig":1845,"cular":1846,"Ġseg":1847,"Ġbehavior":1848,"Ġcub":1849,"Ġnotation":1850,"ĠIntroduction":1851,"Ġshape":1852,"Ġinput":1853,"iI":1854,"Ġhalf":1855,"Ġreview":1856,"Ġroots":1857,"Ġstill":1858,"Ġrectangle":1859,"ave":1860,"Ġshow":1861,"Ġinterest":1862,"ather":1863,"ĠDiv":1864,"light":1865,"ĠIntro":1866,"ĠModule":1867,"Ġpolynomials":1868,"Ġoverall":1869,"Ġremains":1870,"lier":1871,"onomet":1872,"Ġgroup":1873,"Ġem":1874,"ledge":1875,"Ġfac":1876,"Ġpresent":1877,"undred":1878,"Ġeasi":1879,"Ġoutput":1880,"ied":1881,"Ġsize":1882,"ifically":1883,"inomial":1884,"Ġconsist":1885,"Ġrates":1886,"Ġgraphs":1887,"Ġincreasing":1888,"Ġgover":1889,"Ġorgan":1890,"Ġcri":1891,"_{":1892,"Ġcong":1893,"20":1894,"align":1895,"Ġbelow":1896,"iIiI":1897,"verage":1898,"Ġbasic":1899,"Ġread":1900,"math":1901,"where":1902,"ade":1903,"Ġamong":1904,"actor":1905,"Ġnecess":1906,"AP":1907,"Ġfre":1908,"Ġcells":1909,"cent":1910,"ĠMore":1911,"Ġinterpre":1912,"'ve":1913,"ĠSub":1914,"ets":1915,"Ġhorizontal":1916,"...":1917,"Ġknowledge":1918,"ĠSpecifically":1919,"Ġintegr":1920,"Ġdef":1921,"Ġvisual":1922,"Ġcareful":1923,"Ġdive":1924,"Ġ**":1925,"Ġinequality":1926,"ĠCalcul":1927,"Ġpatterns":1928,"app":1929,"face":1930,"Ġperfect":1931,"Ġmuch":1932,"omain":1933,"lection":1934,"Ġexponents":1935,"Ġthin":1936,"Ġatom":1937,"Ġlimits":1938,"lation":1939,"ĠEqu":1940,"Ġperi":1941,"arith":1942,"Ġvaluable":1943,"Ġsummary":1944,"rea":1945,"Ġsample":1946,"step":1947,"Ġinves":1948,"Ġphys":1949,"Ġgain":1950,"Ġaccur":1951,"Ġdiscus":1952,"Ġthroughout":1953,"Ġforce":1954,"Ġstrateg":1955,"aches":1956,"Ġdigit":1957,"Ġdefinition":1958,"ĠAB":1959,"Ġrespon":1960,"Ġdescrib":1961,"ying":1962,"not":1963,"ock":1964,"\\_{":1965,"Ġpe":1966,"ĠNumber":1967,")\",":1968,"Ġdirection":1969,"Ġpers":1970,"Ġrole":1971,"Ġuntil":1972,"Ġsquares":1973,"Ġadditional":1974,"ress":1975,"ĠConsider":1976,"log":1977,"ifying":1978,"theta":1979,"Ġturn":1980,"ĠSuppose":1981,"Ġexamine":1982,"Ġmast":1983,"egin":1984,"Ġmaxim":1985,"Ġcongru":1986,"olution":1987,"dx":1988,"Ġcritical":1989,"tex":1990,"____":1991,"Ġdiff":1992,"Ġsci":1993,"Ġwater":1994,"Ġdeeper":1995,"ma":1996,"Ġplay":1997,"inear":1998,"idence":1999,"old":2000,"-\\":2001,"Ġsay":2002,"Ġcharacter":2003,"Ġdelve":2004,"Ġcurrently":2005,"Ġi":2006,"Ġtemper":2007,"Ġrot":2008,"Ġrecogn":2009,"Al":2010,"ĠSimilar":2011,"Ġfundamental":2012,"Ġhundred":2013,"point":2014,"16":2015,"veloc":2016,"nderstand":2017,"Ġ16":2018,"Ġveloc":2019,"ference":2020,"Ġstructure":2021,"Ġdomain":2022,"Ġexist":2023,"Ġintegral":2024,"Ġquanti":2025,"Ġplot":2026,"Since":2027,"Ġdirectly":2028,"Ġwid":2029,"ithme":2030,"ithmetic":2031,"Ġintro":2032,"Ġbeen":2033,"Ġenti":2034,"Ġsepar":2035,"ler":2036,"Ġmeasures":2037,"MzMzMzMz":2038,"Ġest":2039,"âĪĴ":2040,"Ġdenot":2041,"alth":2042,"tention":2043,"Ġstate":2044,"Ġques":2045,"Ġadj":2046,"Ġrequires":2047,"Ġacid":2048,"hec":2049,"vers":2050,"abl":2051,"Ġillustrate":2052,"Ġparent":2053,"oti":2054,"Ġconvert":2055,"Ġmodels":2056,"Ġprovide":2057,"ene":2058,"Ġinsights":2059,"ĠBut":2060,"Ġrepresenting":2061,"Ġstraight":2062,"Ġrange":2063,"Ġapproximately":2064,"Ġshif":2065,"Ġlaw":2066,")$":2067,"ness":2068,"Ġchem":2069,"Ġhigher":2070,"Ġent":2071,"ĠFirst":2072,"ĠThen":2073,"Ġshapes":2074,"xy":2075,"Ġcoordinate":2076,"Ġquantity":2077,"vation":2078,"Ġlogarith":2079,"Ġassoci":2080,"Ġminim":2081,"Ġconnect":2082,"Ġmaintain":2083,"Ġfact":2084,"ĠMultiplying":2085,"anced":2086,"An":2087,"Ġgrade":2088,"Ġgeneral":2089,"Ġprec":2090,"nds":2091,"ractice":2092,"Ġlarge":2093,"ĠYou":2094,"atisf":2095,"Ġpred":2096,"Ġtrue":2097,"Ġer":2098,"Ġinverse":2099,"ĠĠĠ":2100,"Ġcarb":2101,"âĤģ":2102,"ara":2103,"Ġparallel":2104,"Ġbetter":2105,"lies":2106,"Ġshare":2107,"wise":2108,"Ġsatisf":2109,"Ġattention":2110,"Ġmi":2111,"Ġfeet":2112,"Ġeff":2113,"Finally":2114,"Ġcontrib":2115,"pot":2116,"mpt":2117,"osi":2118,"Ġcannot":2119,"Ġmanip":2120,"way":2121,"Ġdemand":2122,"Ġpara":2123,"day":2124,"Ġlengths":2125,"Ġnote":2126,"Ġcaus":2127,"Ġrules":2128,"Ġsuc":2129,"Ġgroups":2130,"ared":2131,"ked":2132,"ital":2133,"Ġaccording":2134,"Ġclass":2135,"Ġaffect":2136,"Ġprinciples":2137,"owers":2138,"Ġsurface":2139,"up":2140,"ique":2141,"Ġsequence":2142,"Ġinteger":2143,"Ġtack":2144,"+\\":2145,"eterm":2146,"yond":2147,"Ġready":2148,"Ġearlier":2149,")}":2150,"atures":2151,"Ġopposite":2152,"Ġmethods":2153,"Ġ19":2154,"Ġfar":2155,"nderstanding":2156,"Ġow":2157,"quad":2158,"Ġtype":2159,"Ġprovides":2160,"Ġaccount":2161,"ĠMe":2162,"Ġreflect":2163,"Ġdistin":2164,"Ġtowards":2165,"Ġcle":2166,"utes":2167,"ict":2168,"Ġblood":2169,"lose":2170,"Ġvelocity":2171,"Ġunique":2172,"Ġtang":2173,"Ġfrequ":2174,"lecu":2175,"Ġeffici":2176,"Ġestabl":2177,"echan":2178,"Ġlife":2179,"Ġlab":2180,"elcome":2181,"meric":2182,"Ġ($":2183,"ths":2184,"ĠWor":2185,"Ġmotion":2186,"rang":2187,"iron":2188,"Ġentire":2189,"ump":2190,"Ġcomponents":2191,"ars":2192,"Ġproducts":2193,"So":2194,"Ġratios":2195,"Ġdefined":2196,"ilities":2197,"Ġeffect":2198,"Ġtrigonomet":2199,"Ġradius":2200,"Ġintegrals":2201,"Ġincrease":2202,"Ġcenter":2203,"Ġindepend":2204,"yn":2205,"Ġeffec":2206,"Ġskills":2207,"Ġbeyond":2208,"Ġgl":2209,"14":2210,"ĠAmeric":2211,"ring":2212,"ired":2213,"Ġmid":2214,"Ġcross":2215,"Ġfive":2216,"Ġ\\\\":2217,"Ġperiod":2218,"ĠPractice":2219,"Ġvertex":2220,"Ġrew":2221,"'ll":2222,"NT":2223,"ĠFactor":2224,"Ġquantities":2225,"utive":2226,"Int":2227,"ysis":2228,"av":2229,"Ġgovern":2230,"Ġdemon":2231,"tivity":2232,"ole":2233,"ulations":2234,"Ġspace":2235,"Ġpairs":2236,"Ġlight":2237,"}{\\":2238,"ense":2239,"oid":2240,"Ġdemonst":2241,"heses":2242,"Algebra":2243,"Ġnext":2244,"Ġnat":2245,"ĠPer":2246,"```":2247,"Ġmolecu":2248,"Ġcalculations":2249,"ĠSolving":2250,"Ġrecall":2251,"Ġcompute":2252,"Ġincreases":2253,"Ġ'":2254,"Ġtransformations":2255,"Ġbound":2256,"nded":2257,"Ġclos":2258,"nde":2259,"ĠRem":2260,"Ġexactly":2261,"tically":2262,"Ġcoefficient":2263,"Ġ{":2264,"bf":2265,"rK":2266,"Ġmechan":2267,"ĠAdditionally":2268,"ants":2269,"ĠWelcome":2270,"Ġcolum":2271,"Here":2272,"NTU":2273,"ĠY":2274,"Ġsqrt":2275,"Ġhum":2276,"Ġmatrix":2277,"Ġreaction":2278,"ariable":2279,"begin":2280,"Ġsituations":2281,"Ġelim":2282,"Ġdise":2283,"ĠâīĪ":2284,"75":2285,"Ġenable":2286,"isms":2287,"Ġkeep":2288,"Ġapproach":2289,",\\":2290,"aces":2291,"âĤĤ":2292,"igns":2293,"Ġstre":2294,"Ġwhy":2295,"NA":2296,"like":2297,"Ġpur":2298,"Ġchoo":2299,"magine":2300,"Ġvia":2301,"Ġensure":2302,"ason":2303,"Ġaverage":2304,"ĠAr":2305,"Ġsuppose":2306,"Ġstates":2307,"Ġcoefficients":2308,"Ġnecessary":2309,"Ġcontro":2310,"ull":2311,"Ġwords":2312,"Ġav":2313,"Ġscenarios":2314,"Ġhours":2315,"Ġ---":2316,"ceed":2317,"impl":2318,"ues":2319,"ĠPl":2320,"ĠGraph":2321,"Ġsimplify":2322,"Ġhis":2323,"*}":2324,"ĠDec":2325,"Ġapproaches":2326,"wo":2327,"ner":2328,"pri":2329,"Ġderivatives":2330,"ĠCo":2331,"lls":2332,"Ġrather":2333,"13":2334,"Ġidenti":2335,"chang":2336,"Ġinflu":2337,"ĠInter":2338,"Ġobjects":2339,"Ġforces":2340,"Ġleg":2341,"ĠWhat":2342,"ĠSimilarly":2343,"sc":2344,"inal":2345,"Ġhapp":2346,"Ġcorresponds":2347,"atory":2348,"Ġris":2349,"Ġdx":2350,"icular":2351,"Ġgu":2352,"Ġhypot":2353,"Ġparabol":2354,"........":2355,"Ġnotice":2356,"Ġexpressed":2357,"---|":2358,"pendicular":2359,"Ġ14":2360,"Ġinches":2361,"Ġsymmet":2362,"Ġgeometry":2363,"Ġtaking":2364,"Ġ$(":2365,"hing":2366,"line":2367,"ĠCom":2368,"Ġdistinct":2369,"ources":2370,"Ġrest":2371,"Ġens":2372,"dt":2373,"ormal":2374,"dro":2375,"Ġallowing":2376,"ered":2377,"Ġable":2378,"Ġlies":2379,"enth":2380,"ystems":2381,"ĠWhile":2382,"otice":2383,"Ġnu":2384,"Ġwritten":2385,"Ġcongruent":2386,"22":2387,"hib":2388,"Ġdesign":2389,"Ġban":2390,"Ġtemperature":2391,"Ġnet":2392,"wh":2393,"Ġrewrite":2394,"Ġrepresented":2395,"Ġimpro":2396,"Ġanalysis":2397,"nc":2398,"Ġpath":2399,"Ġdig":2400,"viron":2401,"Ġnature":2402,"Ġshe":2403,"osis":2404,"Ġmakes":2405,"aneous":2406,"yth":2407,"Ġareas":2408,"Ġcases":2409,"Ġfut":2410,"Ġdecreas":2411,"Ġwidth":2412,"Ġonce":2413,"Ġexpand":2414,"Ġflow":2415,"know":2416,"Ġapplication":2417,"Ġappropri":2418,"ĨĴ":2419,"Ġmass":2420,"Ġinside":2421,"ological":2422,"Ġfactoring":2423,"Ġcompare":2424,"Ġrepe":2425,"Ġrow":2426,"rong":2427,"omen":2428,"ze":2429,"gor":2430,"ude":2431,"$$\\":2432,"Ġcorrect":2433,"ĠLessons":2434,"by":2435,"Ġspeed":2436,"ior":2437,"Ġsubtract":2438,"Ġ...":2439,"tices":2440,"Ġrequire":2441,"Ġflu":2442,"Ġprote":2443,"Ġhowever":2444,"Ġdivided":2445,"iven":2446,"Ġcontaining":2447,"Ġ25":2448,"Ġunderlying":2449,"Ġpowers":2450,"Ġyears":2451,"Ġanalyzing":2452,"Ġperpendicular":2453,"ified":2454,"Ġassociated":2455,"60":2456,"Therefore":2457,"Ġmaximum":2458,"Ġbal":2459,"Ġhad":2460,"otal":2461,"Ġoccurs":2462,"Ġfl":2463,"Ġbinomial":2464,"Ġpressure":2465,"Ġequil":2466,"ĠThrough":2467,"Ġexploration":2468,"Ġ$$":2469,"Ġexists":2470,"Ġintegers":2471,"Ġdou":2472,"ĠLinear":2473,"Ġmis":2474,"Ġdesired":2475,"Ġmoving":2476,"ĠExpon":2477,"Ġtackle":2478,"Ġown":2479,"*(":2480,"Ġthough":2481,"Ġanalyze":2482,"Ġsuccess":2483,"Ġel":2484,"Ġcompound":2485,"Ġcoordinates":2486,"Ġclose":2487,"Ġquoti":2488,"part":2489,"Ġsix":2490,"Ġdetermining":2491,"nding":2492,"Ġremember":2493,"ĠDeterm":2494,"pite":2495,"more":2496,"Ġstudy":2497,"Ġproduction":2498,"Ġdispl":2499,"mic":2500,"Ġcompared":2501,"Ġparentheses":2502,"Ġpowerful":2503,"17":2504,"atic":2505,"istic":2506,"Ġmathematics":2507,"Ġdifferenti":2508,"iving":2509,"Ġmulti":2510,"bal":2511,"ĠDe":2512,"Ġbreak":2513,")]":2514,"Ġexte":2515,"Ġfam":2516,"bit":2517,"Ġtens":2518,"Ġmixed":2519,"By":2520,"Ġrese":2521,"Ġfigures":2522,"Ġstatis":2523,"Ġdegree":2524,"Ġlevels":2525,"Ġinterpret":2526,"ĠÏĢ":2527,"ifies":2528,"Ġcomes":2529,"ĠArea":2530,"Ġnatural":2531,"lege":2532,"Ġdimen":2533,"Ġenviron":2534,"sequently":2535,"onds":2536,"Ġexperi":2537,"use":2538,"Ġtangent":2539,"any":2540,"onal":2541,"ĠMoreover":2542,"19":2543,"feren":2544,"Ġregion":2545,"variable":2546,"Ġagainst":2547,"Ġimpact":2548,"Ġdepending":2549,"Ġaxis":2550,"Ġir":2551,"erc":2552,"ili":2553,"ically":2554,"ann":2555,"Ġ13":2556,"Ġpercent":2557,"ĠUnderstanding":2558,"fort":2559,"ka":2560,"vent":2561,"}$.":2562,"ĠThey":2563,"licit":2564,"yl":2565,"Ġsubstitution":2566,"uro":2567,"ndom":2568,"Ġheart":2569,"Ġimm":2570,"Ġdealing":2571,"comes":2572,"Ġrele":2573,"Ġlower":2574,"riting":2575,"ĠX":2576,"rams":2577,"Ġcarbon":2578,"inding":2579,"Ġ50":2580,"tis":2581,"Ġext":2582,"ges":2583,"Ġ30":2584,"Ġerr":2585,"angular":2586,"Ġfield":2587,"Ġdil":2588,"ilit":2589,"AAAAAAAAAAAAAAAA":2590,"ement":2591,"Ġgraphing":2592,"isions":2593,"Another":2594,"Ġtypic":2595,"Ġarithmetic":2596,"uals":2597,"Sk":2598,"Ġcm":2599,"Thus":2600,"des":2601,"Ġ11":2602,"Ġbox":2603,"Ġreason":2604,"Ġcentral":2605,"Ġfigure":2606,"ĠMath":2607,"ĠExample":2608,"Ġintervals":2609,"Ġcreating":2610,"Ġcomput":2611,"Ġcontinuous":2612,"0000":2613,"Ġcomplete":2614,"Ġgene":2615,"Â®":2616,"Ġengine":2617,"Ġassum":2618,"Ġconcent":2619,"Ġbra":2620,"Ġpas":2621,"ĠQu":2622,"Ġinvest":2623,"Ġdigits":2624,"Ġcontra":2625,"{(":2626,"Ġchec":2627,"Ġrandom":2628,"ire":2629,"ynam":2630,"Ġmade":2631,"Ġ60":2632,"How":2633,"Ġgoal":2634,"Ġpeop":2635,"Ġaspect":2636,"Ġinfinite":2637,"edi":2638,"entific":2639,"Ġcosts":2640,"oney":2641,".$$":2642,"Ġthir":2643,"Ġ17":2644,"Ġeasily":2645,"celer":2646,"istance":2647,"ollege":2648,"Ġhydro":2649,"Ġsegment":2650,"ĠFra":2651,"Ġspecial":2652,"Ġoutcomes":2653,"Ġprog":2654,"roup":2655,"ression":2656,"Ġquick":2657,"Ġemplo":2658,"igure":2659,"ĠTra":2660,"Ġfuture":2661,"Ġconstruct":2662,"Ġwhereas":2663,"Ġcomparing":2664,"Ġsymbol":2665,"Ġ_":2666,"ored":2667,"Ġindeed":2668,"Ġrequired":2669,"29":2670,"Ġstrong":2671,"ĠCalculus":2672,"Ġinvolve":2673,"ym":2674,"At":2675,"aps":2676,"dentify":2677,"Ġstrategies":2678,"Ġworks":2679,"Ġprom":2680,"ulate":2681,"Ġpi":2682,"Ġplu":2683,"Ġphen":2684,"Ġthink":2685,"Solution":2686,"known":2687,"Ġmagnit":2688,"Ġdouble":2689,"Ġreve":2690,"ished":2691,"Ġround":2692,"Ġret":2693,"Ġpolic":2694,"Using":2695,"ĠÂ":2696,"Ġisol":2697,"Ġprot":2698,"Ġmiles":2699,"Ġextra":2700,"Ġ180":2701,"rons":2702,"}^":2703,"Ġtools":2704,"Ġdon":2705,"Ġdefinite":2706,"Ġfeel":2707,"Ġlocal":2708,"Ġsim":2709,"ĠMat":2710,"Ġevent":2711,"Ġher":2712,"aves":2713,"Ġmath":2714,"Ġintric":2715,"Ġ90":2716,"Ġappropriate":2717,"Ġ24":2718,"Ġrad":2719,":**":2720,"cal":2721,"Ġaut":2722,"Ġhaving":2723,"ĠFind":2724,"Ġmarket":2725,"ries":2726,"ureka":2727,"arding":2728,"Ġfall":2729,"Ġfields":2730,"Ġscenario":2731,"urthermore":2732,"When":2733,"ĠAlgebra":2734,"ĠRemember":2735,"ĠBC":2736,"Ġencount":2737,"Ġmeasurement":2738,"iece":2739,"udi":2740,"Ġglance":2741,"rive":2742,"side":2743,"ĠThat":2744,"Ġexponent":2745,"Ġidea":2746,"mathbf":2747,"sp":2748,"ĠGet":2749,"ĠSubtra":2750,"Ġpartial":2751,"ĠEar":2752,"Ġhuman":2753,"College":2754,"tili":2755,"Ġindu":2756,"ibri":2757,"ĠTwo":2758,"Ġpeople":2759,"Ġleast":2760,"Ġcalculated":2761,"Ġnear":2762,"Ġchoose":2763,"rid":2764,"Ġclear":2765,"Ġwhose":2766,"Ġreactions":2767,"Ġrespective":2768,"Ġatt":2769,"VV":2770,"Ġexpect":2771,"Ġmastering":2772,"=-":2773,"However":2774,"Ġelectron":2775,"Ġstructures":2776,"100":2777,"NY":2778,"irm":2779,"hesis":2780,"Ġvi":2781,"ety":2782,"osed":2783,"Ġplan":2784,"ĠEach":2785,"Ġdifferences":2786,"/(":2787,"Eng":2788,"Ġhol":2789,"Ġinvolved":2790,"Pro":2791,"Ġprecise":2792,"Ġdr":2793,"Ġelectric":2794,"istry":2795,"ody":2796,"Ġconcentration":2797,"Ġappear":2798,"rational":2799,"ĠNumbers":2800,"ises":2801,"Ġgovernment":2802,"One":2803,"imeter":2804,"ageNY":2805,"ĠComparing":2806,"Ġcontrol":2807,"EngageNY":2808,"ĠFinally":2809,"Ġcircum":2810,"osition":2811,"ltim":2812,"Ġremaining":2813,"Ġsw":2814,"Ġanti":2815,"Ġbuild":2816,"stim":2817,"Ġpattern":2818,"Ġformed":2819,"^(":2820,"Ġacceler":2821,"Ġtables":2822,"ĠIdentify":2823,"Ġsense":2824,"Ġaltern":2825,"Ġexc":2826,"netic":2827,"ĠInst":2828,"ĠConsequently":2829,"Ġcate":2830,"selves":2831,"Ġintersect":2832,"ĠMultiply":2833,"ĠRecall":2834,"Ġfree":2835,"ices":2836,"Ġexperim":2837,"Ġeffectively":2838,"Ġmom":2839,")/(":2840,"Ġhelps":2841,"Ġimagine":2842,"Ġrectangles":2843,"Ġidentifying":2844,"Ġtransl":2845,"Ġrefers":2846,"Ġyet":2847,"Ġdiscuss":2848,"Ġtypically":2849,"ĠFurthermore":2850,"Ġnucle":2851,"Ġprocesses":2852,"jec":2853,"cho":2854,"mentary":2855,"Ġtoo":2856,"ythag":2857,"Ġelements":2858,"\\[":2859,"Ġthus":2860,"Ġdefine":2861,"ats":2862,"orean":2863,"âĪł":2864,"Ġoptim":2865,"Ġchallenges":2866,"ery":2867,"Ġeconomic":2868,"Ġnormal":2869,"Ġaccurately":2870,"Ġdenotes":2871,"Ġmod":2872,"Ġlow":2873,"Ġenables":2874,"Ġvectors":2875,"ident":2876,"Ġphenomen":2877,"Ġrespectively":2878,"Ġhealth":2879,"Ġiss":2880,"Ġenough":2881,"Ġresear":2882,"io":2883,"Ġexamining":2884,"###":2885,"sec":2886,"Ġindependent":2887,"Ġmoney":2888,"oly":2889,"Ġsupport":2890,"Ġ.":2891,"Ġopen":2892,"Ġexhib":2893,"sib":2894,"ï¸":2895,"Ġregarding":2896,"Ġfeatures":2897,"Ġparabola":2898,")-":2899,"}=\\":2900,"Â®ï¸":2901,"Â®ï¸İ":2902,"box":2903,"Ġdivis":2904,"ythagorean":2905,"oring":2906,"Ġequilibri":2907,")+":2908,"ateral":2909,"Ġslight":2910,"Ġvol":2911,"Ġspecies":2912,"Ġenvironment":2913,"Ġcommun":2914,"Ġdemonstr":2915,"ĠOn":2916,"Ġconsists":2917,"qqqqqqqq":2918,"Ġactual":2919,"Eureka":2920,"Ġpay":2921,"Ġproportion":2922,"ĠFun":2923,"Ġproduce":2924,"Ġland":2925,"Ġiniti":2926,"Ġuseful":2927,"Ġtrigonometric":2928,"---|---|":2929,"Ġability":2930,"}(":2931,"Ġmem":2932,"Ġhappens":2933,"iIiIiIiI":2934,"rip":2935,"dd":2936,"ĠFound":2937,"sional":2938,"Ġsugg":2939,"Ġmolecules":2940,"Ġprovided":2941,"\\;":2942,"Ġelectrons":2943,"Â®ï¸İ/":2944,"Ġcolumn":2945,"Ġways":2946,"ĠAng":2947,"Ġmar":2948,"Con":2949,"Ġneeded":2950,"CH":2951,"30":2952,"sum":2953,"Ġft":2954,"Ġrepresentation":2955,"fty":2956,"Ġconsum":2957,"titution":2958,"Ġdimensions":2959,"pid":2960,"ĠGeomet":2961,"ĠPythagorean":2962,"ĠOur":2963,"Ġcontinue":2964,"Ġmagnitude":2965,"ob":2966,"Ġgas":2967,"Ġquickly":2968,"ltimately":2969,"Ġweight":2970,"infty":2971,"imals":2972,"Ġadvanced":2973,"&=":2974,"}$$":2975,"ĠOper":2976,"//":2977,"omme":2978,"Ġ&=":2979,"py":2980,"Ġmeasurements":2981,"ĠHe":2982,"It":2983,"rim":2984,"Ġproceed":2985,"Ġdrawing":2986,"omething":2987,"Ġtechnique":2988,"Ġchain":2989,"ubstit":2990,"Ġinfinity":2991,"inating":2992,"ised":2993,"Ġavail":2994,"ln":2995,"Ġarrang":2996,"licated":2997,"Ġmeasuring":2998,"ĠEstim":2999,"Ġunknown":3000,"Ġsetting":3001,"Ġresponse":3002,"Ġcome":3003,"ĠFoundations":3004,"ĠConver":3005,"Ġsituation":3006,"Ġfew":3007,"Ġoperation":3008,"Ġminimum":3009,"Ġsuggest":3010,"Ġbody":3011,"Ġsigns":3012,"Ġstarting":3013,"Ġlast":3014,"Ġbo":3015,"Ġapplied":3016,"Ġsymmetry":3017,"24":3018,"Ġsequences":3019,"osing":3020,"Ġunlike":3021,"Ġacti":3022,")\".":3023,"Ġcurves":3024,"Ġindividuals":3025,"ug":3026,"Ġmind":3027,"ible":3028,"Ġcir":3029,"Ġpoli":3030,"iting":3031,".)":3032,"gain":3033,"Ġextre":3034,"Ġmedian":3035,"Ġsell":3036,"Ġlearning":3037,"Ġestimate":3038,"Ġ\\(\\":3039,"Ġsomething":3040,"Ġquadratics":3041,"Ġrecognizing":3042,"Ġradians":3043,"Ġslightly":3044,"ocks":3045,"ching":3046,"Ġincreased":3047,"Ġintricate":3048,"Ġleads":3049,"Ġcube":3050,"ĠOperations":3051,"ĠAfter":3052,"Ġconne":3053,"acent":3054,"ĠAP":3055,"âĢĿ":3056,"Ġarg":3057,"Ġcharge":3058,"ĠÎĶ":3059,"chie":3060,"Ex":3061,"tig":3062,"Ġcontains":3063,"Ġaway":3064,"Ġspecifically":3065,"Ġpiece":3066,"Ġmoment":3067,"Ġadjust":3068,"ĠSystems":3069,"Ġdiam":3070,"ient":3071,"Ġcharg":3072,"Ġdisease":3073,".\"":3074,"Ġtax":3075,"chool":3076,"Ġ(\\":3077,"ancial":3078,"Ġapples":3079,"Ġquestion":3080,"ality":3081,"Ġtells":3082,"Ġsets":3083,"ĠOnce":3084,"Ġprices":3085,"Ġconstants":3086,"ived":3087,"Ġidentity":3088,"Ġdiffic":3089,"Ġthird":3090,"Ġ`":3091,"ĠInstead":3092,"Ġquotient":3093,"Ġactually":3094,"ĠComple":3095,"Ġequilibrium":3096,"Ġachie":3097,"rm":3098,"Ġvertices":3099,"actions":3100,"Ġintu":3101,"Ġday":3102,"ĠFactoring":3103,"Ġconsid":3104,"Ġvs":3105,"boxed":3106,"ĠEarth":3107,"ury":3108,"Ġnumerous":3109,"Ġcloser":3110,")\"":3111,"eep":3112,"45":3113,"ril":3114,"Ġtakes":3115,"Ġtwice":3116,"zero":3117,"lobal":3118,"}^{":3119,"Ġfoundation":3120,"ĠâĪĴ":3121,"ultaneous":3122,"Ġacceleration":3123,"go":3124,"Ġsine":3125,"Ġfit":3126,"ĠWar":3127,"Ġion":3128,"ommended":3129,"Ġsignificantly":3130,"Ġbene":3131,"Ġmus":3132,"itions":3133,"Ġintern":3134,"ardless":3135,"Ġiden":3136,"((":3137,"racy":3138,"Ġcomplicated":3139,"coordin":3140,"MzMzMzMzMzMzMzMz":3141,"tle":3142,"Ġaccurate":3143,"Ġcapac":3144,"fer":3145,"Ġmissing":3146,"ased":3147,"Ġonto":3148,"Ġdevelopment":3149,"ĠWriting":3150,"Ġconsidering":3151,"ĠInteg":3152,"rices":3153,"tin":3154,"ĠThere":3155,"volution":3156,"Ġcosine":3157,"com":3158,"Ġlit":3159,"Ġformulas":3160,"--------------------------------":3161,"Ġphysics":3162,"rig":3163,"eros":3164,"Ġopport":3165,"Ġcircles":3166,"Ġbalance":3167,"reat":3168,"Ġrespect":3169,"Ġdifferential":3170,"39":3171,"ee":3172,"ches":3173,"ov":3174,"Ġpor":3175,"Ġplots":3176,"ympt":3177,"ication":3178,"Ġpractic":3179,"Ġcomponent":3180,"Ġdiverse":3181,"sts":3182,"ney":3183,"ingly":3184,"Ġshort":3185,"Ġresources":3186,"xygen":3187,"âģ":3188,"asc":3189,"ssess":3190,")}{":3191,"eral":3192,"though":3193,"Ġdistances":3194,"ĠâĢľ":3195,"Ġsums":3196,"ĠMathema":3197,"}=":3198,"Ġ40":3199,"uration":3200,"Ġtenth":3201,"Ġtravel":3202,"ĠUn":3203,"Ġmill":3204,"Ġevaluate":3205,"Ġcarefully":3206,"Ġappears":3207,"ĠGiven":3208,"aris":3209,"||||":3210,"Ġparticularly":3211,"Ġminutes":3212,"^-":3213,"Ġquestions":3214,"ocial":3215,"ĠDividing":3216,"ĠAmerican":3217,"entially":3218,"ĠSimpl":3219,"Ġcalculation":3220,"Ġdetail":3221,"Ġcombined":3222,"Ġtransformation":3223,"Ġstory":3224,"ousand":3225,"Ġsubstitute":3226,"ren":3227,"Ġproportionality":3228,"Ġcult":3229,"ĠMultiplication":3230,"âĪŀ":3231,"Ġrectangular":3232,"ĠTrans":3233,"Ġfrequency":3234,"Ġmeters":3235,"rete":3236,"ĠâĪļ":3237,"Ġparallelog":3238,"Ġparam":3239,"Ġdifficult":3240,"ysrK":3241,"Ġbuilding":3242,"Ġengineering":3243,"Ġgive":3244,"arily":3245,"Ġvisually":3246,"Ġeasier":3247,"ĠSh":3248,"ĠII":3249,"Ġidentical":3250,"inary":3251,"Ġtreat":3252,"Ġemploy":3253,"reg":3254,"ĠNotice":3255,"Ġindicates":3256,"inations":3257,"Ġball":3258,"lor":3259,"Ġfractional":3260,"Ġphysical":3261,"MAP":3262,"Ġbonds":3263,"Ġthings":3264,"Ġscientific":3265,"ert":3266,"Ġfull":3267,"ĠRecommended":3268,"Ġval":3269,"Ġdecay":3270,"ĠApplying":3271,"\\;\\;":3272,"Ġproviding":3273,"Ġsimultaneous":3274,"Ġirrational":3275,"ĠTheorem":3276,"Ġrun":3277,"Ġmatter":3278,"Ġdistributive":3279,"Ġconnecting":3280,"ĠNext":3281,"Ġcoll":3282,"Ġbehind":3283,"appy":3284,"Ġaccum":3285,"eces":3286,"Ġlos":3287,"Ġnumerical":3288,"ĠCong":3289,"Ġpound":3290,"Ġconfidence":3291,"hy":3292,"tition":3293,"tt":3294,"Ġserve":3295,"Ġatoms":3296,"ĠOb":3297,"âĪļ":3298,"^{-":3299,"Ġfinancial":3300,"Ġrece":3301,"Ġcorrespond":3302,"27":3303,"}}{":3304,"Ġutili":3305,"Ġsegments":3306,"urns":3307,"Ġimage":3308,"Ġobserve":3309,"oll":3310,"Ġelimination":3311,"ĠExp":3312,"ĠDNA":3313,"ups":3314,"ection":3315,"eria":3316,"ĠHappy":3317,"\\*":3318,"oods":3319,"Ġsubst":3320,"Ġsoci":3321,"unity":3322,"ious":3323,"ians":3324,"Ġinform":3325,"Ġart":3326,"ĠOver":3327,"Ġsimplifies":3328,"Ġbases":3329,"zing":3330,"Ġnonzero":3331,"Ġoxygen":3332,"Ġlay":3333,"ĠProper":3334,"Ġperforming":3335,"oms":3336,"imensional":3337,"Ġsupply":3338,"Ġisolate":3339,"Ġenh":3340,"ike":3341,"Ġtransp":3342,"ĠNote":3343,"})":3344,"Ġchanging":3345,"Ġestablished":3346,"Ġtrac":3347,"ising":3348,"Ġexpan":3349,"}.":3350,"Ġexplored":3351,"Ġschool":3352,"Ġexploring":3353,"Ġevaluating":3354,"Ġaim":3355,"Ġevidence":3356,"ublic":3357,"Ġfil":3358,"Ġindicating":3359,"Ġfixed":3360,"Ġvary":3361,"Ġconstra":3362,"Ġed":3363,"},":3364,"iss":3365,"AB":3366,"Ġdatase":3367,"dle":3368,"dimensional":3369,"ites":3370,"Ġrotation":3371,"Ġeffects":3372,"ĠâĪ«":3373,"preting":3374,"riend":3375,"elta":3376,"mark":3377,"Ġtop":3378,"Ġdeb":3379,"ifferen":3380,"arm":3381,"Ġpossess":3382,"ators":3383,"Ġcompre":3384,"adril":3385,"Ġstudi":3386,"pha":3387,"Ġbro":3388,"Ġplays":3389,"Ġsometimes":3390,"Ġideas":3391,"Ġcomposite":3392,"Ġpurch":3393,"Ġimportance":3394,"Ġshown":3395,"80":3396,"Ġperimeter":3397,"Ġdevi":3398,"Ġholds":3399,"lam":3400,"Ġincome":3401,"ef":3402,"Ġcomfort":3403,"Ġpracticing":3404,"aving":3405,"Ġreasoning":3406,"change":3407,"rouping":3408,"Ġensuring":3409,"iring":3410,"ĠRational":3411,"izz":3412,"ÎĶ":3413,"Delta":3414,"abilities":3415,"Ġavailable":3416,"ild":3417,"Ġchemical":3418,"Ġasympt":3419,"venue":3420,"Ġdefinitions":3421,"Ġpass":3422,"Ġq":3423,"Ġlooking":3424,"rade":3425,"Ġdepends":3426,"âĨĴ":3427,"Ġpieces":3428,"pping":3429,"jor":3430,"Ġothers":3431,"Ġcategor":3432,"Ġjour":3433,"Ġendpoint":3434,"Ġdecisions":3435,"ĠPoly":3436,"ograph":3437,"FL":3438,"Ġearly":3439,"Ġconsistent":3440,"Ġestablish":3441,"Ġpati":3442,"Ġshows":3443,"Ġdid":3444,"gence":3445,"Ġzeros":3446,"oph":3447,"Ġreading":3448,"ĠImagine":3449,"Ġconverting":3450,"ium":3451,"Ġcall":3452,"Ġobtained":3453,"ĠDetermine":3454,"Ġultimately":3455,"imal":3456,"Ġprime":3457,"ynamics":3458,"Ġeight":3459,"Ġtarg":3460,"Ġcomputing":3461,"Ġintersection":3462,"Ġarrive":3463,"ĠRep":3464,"ĠExponential":3465,"Ġ1000":3466,"40":3467,"Ġsl":3468,"$:":3469,"ĠFrom":3470,"Ġrapid":3471,"ton":3472,"Ġbar":3473,"Ġreviewing":3474,"blem":3475,"Ġtan":3476,"âĢĭ":3477,"umption":3478,"Ġbus":3479,"Ġerror":3480,"ĠInde":3481,"Ġmatrices":3482,"Ġcarry":3483,"ĠDivide":3484,"Ġconstraint":3485,"Ġexerc":3486,"Ġef":3487,"iness":3488,"riangle":3489,"Ġtrade":3490,"Ġprimary":3491,"versity":3492,"Ġreach":3493,"Ġmole":3494,"Ġcombining":3495,"Ġmagnetic":3496,"Ġearn":3497,"Ġ-\\":3498,"Ġshift":3499,"But":3500,"Ġconcer":3501,"{-":3502,"Ġprinciple":3503,"|----":3504,"urope":3505,"Ġyear":3506,"Ġvers":3507,"ĠOr":3508,"Ġwave":3509,"}$,":3510,"Ġcho":3511,"ource":3512,",\"":3513,"ĠSc":3514,"ĠEvalu":3515,"Ġrecip":3516,"iliar":3517,"Ġcheck":3518,"Ġbond":3519,"Ġregions":3520,"Ġpossib":3521,"tinu":3522,"Ġred":3523,"ĠNew":3524,"Ġpredic":3525,"omb":3526,"Ġregardless":3527,"reci":3528,"Ġthousand":3529,"ĠMean":3530,"emp":3531,"ention":3532,"gging":3533,"ĠMulti":3534,"Ġprofici":3535,"Ġmarg":3536,"Ġincor":3537,")$.":3538,"Imagine":3539,"Ġhistor":3540,"Ġlabor":3541,"Ġaction":3542,"33":3543,"Ġcups":3544,"Ġremainder":3545,"Ġdiameter":3546,"Ġcomfortable":3547,"](":3548,"Ġsurrou":3549,"Ġserves":3550,"Ġseparate":3551,"Ġrisk":3552,"hers":3553,"ĠEurope":3554,"Ġpizz":3555,"Ġsure":3556,"Ġcondu":3557,"Ġfail":3558,"anc":3559,"Ġregular":3560,"ĠAnal":3561,"Ġmoder":3562,"21":3563,"Ġexplicit":3564,"Ġwee":3565,"Ġcompe":3566,"Ġadjacent":3567,"Wor":3568,"With":3569,"Ġsocial":3570,"Ġinfluence":3571,"jective":3572,"Ġmultiplied":3573,"Ġmaterials":3574,"67":3575,"Ġslic":3576,"pm":3577,"Ġfriend":3578,"Ġsections":3579,"izes":3580,"CD":3581,"ĠRi":3582,"Ġimplies":3583,"Ġfacilit":3584,"Ġdistributions":3585,"Ġjourney":3586,"Ġcontinuity":3587,"inate":3588,"ĠFinding":3589,"Ġgiving":3590,"Ġmajor":3591,"Ġthemselves":3592,"Ġvisualize":3593,"ters":3594,"Ġcombine":3595,"Ġhyper":3596,"Ġseemingly":3597,"Ġrise":3598,"ification":3599,"Ġobserv":3600,"Ġtopics":3601,"ector":3602,"ex":3603,"ulating":3604,"Ġalign":3605,"Ġbasics":3606,"ĠFunctions":3607,"otes":3608,"Ġappreci":3609,"Ġsimultaneously":3610,"LS":3611,"iti":3612,"Ġpain":3613,"Ġformation":3614,"Ġcircu":3615,"Consider":3616,"Ġprove":3617,"ĠAcc":3618,"ĠQuadra":3619,"Ġcombinations":3620,"Ġmeet":3621,"->":3622,"Ġlo":3623,"ĠGraphing":3624,"Ġfasc":3625,"Ġfollowed":3626,"Ġpresence":3627,"hat":3628,"Ġbot":3629,"Ġlocation":3630,"Ġsuccessful":3631,"Ġsatisfy":3632,"Ġvertically":3633,"Ġbreaking":3634,"Ġdenoted":3635,"Ġ45":3636,"png":3637,"ĠSec":3638,"Ġreflection":3639,"tc":3640,"erv":3641,"down":3642,"Ġworth":3643,"Ġcircumference":3644,"vec":3645,"Ġincreasingly":3646,"Ġsmo":3647,"Ġmidpoint":3648,"ĠComplex":3649,"Ġglobal":3650,"ustom":3651,"Ġmonomial":3652,"Ġground":3653,"Ġphenomena":3654,"Sol":3655,"Ġconclude":3656,"Ġhundredths":3657,"Ġdenote":3658,"Ġprofit":3659,"![":3660,"Ġyield":3661,"Ġ:":3662,"Ġquadril":3663,"Ġpreser":3664,"Ġgoods":3665,"Ġauth":3666,"enuse":3667,"Ġplaces":3668,"els":3669,"uc":3670,"Ġadded":3671,"Ġselect":3672,"Ġtoday":3673,"Ġsca":3674,"Ġstarted":3675,"fined":3676,"ĠSubstit":3677,"Ġ36":3678,"Ġmultiples":3679,"Ġdoing":3680,")=\\":3681,"Ġfore":3682,"Ġelectro":3683,"ĊĠĠ":3684,"Ġvolt":3685,"Ġdep":3686,"astic":3687,"CM":3688,"Ġlocated":3689,"Ġdoesn":3690,"âĪ«":3691,"Ġ80":3692,"lace":3693,"Ġheat":3694,"------------":3695,"astly":3696,"Ġforming":3697,"aken":3698,"Ġwide":3699,"Ġsimpler":3700,"ĠNon":3701,"Ġmovement":3702,"ung":3703,"âī":3704,"onom":3705,"ivil":3706,"ĠEquations":3707,"Figure":3708,"hest":3709,"Ġatte":3710,"Ġitems":3711,"Ġpolitical":3712,"ĠRes":3713,"ĠDis":3714,"Ġlogarithmic":3715,"ĠAdd":3716,"ND":3717,"ores":3718,"arrow":3719,"resent":3720,"Ġcomparis":3721,"Ġcapital":3722,"ysi":3723,"Ġbenef":3724,")$,":3725,"Ġln":3726,"pper":3727,"Ġdiver":3728,"Ġsynt":3729,"ids":3730,"aries":3731,"Ġemerg":3732,"bitra":3733,"ĠSubtracting":3734,"ĠDi":3735,"Ġput":3736,"Ġoutside":3737,"ĠDes":3738,"Ġdespite":3739,"itive":3740,"thing":3741,"finite":3742,"Ġmy":3743,"lopes":3744,"Ġinn":3745,"order":3746,"Ġair":3747,"Ġcut":3748,"angu":3749,"coordinate":3750,"ded":3751,"Ġcompany":3752,"ĠHence":3753,"crip":3754,"ĠWorked":3755,"emann":3756,"âĤĢ":3757,"Ġparallelogram":3758,"ĠPolynomial":3759,"set":3760,"Ġassume":3761,"bs":3762,"Ġgood":3763,"ĠPh":3764,"Ġcounter":3765,"Ġmedic":3766,"irms":3767,"Ġhydrogen":3768,"Ġinitially":3769,"Ġmolecular":3770,"agement":3771,"icro":3772,"Ġhundreds":3773,"Ġtarget":3774,"versely":3775,"Ġmembra":3776,"ĠRiemann":3777,"alk":3778,"Ġarbitra":3779,"Ġtas":3780,"Ġcycle":3781,"],":3782,"Ġmeasured":3783,"ĠÎ¸":3784,"sequent":3785,"Ġdivisor":3786,"90":3787,"Ġprop":3788,"ĠĠĠĠĠ":3789,"Ġproduced":3790,"Ġaspects":3791,"Ġodd":3792,"Ġindust":3793,"Ġexpansion":3794,"Ġefficiently":3795,"ern":3796,"Ġtransport":3797,"oura":3798,"ument":3799,"ories":3800,"cribed":3801,"Ġsole":3802,"Ġtenths":3803,"Ġ200":3804,"Ġcontexts":3805,"ris":3806,"vices":3807,"AD":3808,"Ġhold":3809,"ĠAgain":3810,"Ġbinomials":3811,"Ġslopes":3812,"Ġrevenue":3813,"ouse":3814,"ĠConst":3815,"Ġproportions":3816,"Ġpopulations":3817,"ĠInterpreting":3818,"ĠWorld":3819,"Ġexhibit":3820,"ĠMeas":3821,"Ġmarble":3822,"ĠEquivalent":3823,"partial":3824,"Ġsolidify":3825,"Ġlangu":3826,"ĠÂ±":3827,"Ġmechanisms":3828,"efore":3829,"lue":3830,"Ġwall":3831,"ĠLaw":3832,"Ġrecipro":3833,"Ġadvant":3834,"Ġexchange":3835,"ives":3836,"ĠHist":3837,"Ġblocks":3838,"Ġgenetic":3839,"Ġfascinating":3840,"ĠZ":3841,"Ġdescribe":3842,"Ġdefining":3843,"Ġcolon":3844,"Grade":3845,"Ġtend":3846,"Ġcance":3847,"Ġdetermined":3848,"Ġcat":3849,"Ġconversion":3850,"min":3851,"which":3852,"Ġexpanded":3853,"Ġencounter":3854,"eng":3855,"Ġ((":3856,"uted":3857,"Ġprism":3858,"Simpl":3859,"den":3860,"Ġmodern":3861,"Ġneare":3862,"Ġrefer":3863,"**:":3864,"Ad":3865,"Ġview":3866,"dy":3867,"tLS":3868,"Ġ35":3869,"Ġinterpreting":3870,"ardi":3871,"ĠCons":3872,"Ġinteractions":3873,"Ġtrends":3874,"AAAAAAAAAAAAAAAAAAAAAAAAAAAAAAAA":3875,"Ġmoves":3876,"Ġunc":3877,"Ġderived":3878,"Ġspend":3879,"Ġscaling":3880,"ĠIts":3881,"tile":3882,"ĠVolume":3883,"Multip":3884,"Ġraised":3885,"Ġpassing":3886,"ĠCommon":3887,"tan":3888,"Ġtheory":3889,"|\\":3890,"=(":3891,"alculus":3892,"Ġhighlight":3893,"eth":3894,"lip":3895,"23":3896,"rating":3897,"istics":3898,"Ġlater":3899,"Ġcubic":3900,"Ġparticip":3901,"Ġcyc":3902,"ĠDecimals":3903,"Ġcustom":3904,"|----|----":3905,"nsi":3906,"oh":3907,"Ġseparately":3908,"Ġstudies":3909,"Ġbusiness":3910,"}+":3911,"read":3912,"Ġconven":3913,"Ġpast":3914,"://":3915,"Ġinhe":3916,"cep":3917,"Ġdecrease":3918,"Ġexpected":3919,"bability":3920,"Suppose":3921,"ders":3922,"htt":3923,"encies":3924,"ĠIs":3925,"rial":3926,"ily":3927,"Ġreducing":3928,"mit":3929,"Ġleaving":3930,"Ġshad":3931,"Ġmanage":3932,"Div":3933,"Ġvir":3934,"ĠSp":3935,"Substit":3936,"lex":3937,"Ġprevent":3938,"Ġshared":3939,"Ġnearest":3940,"Ġcausing":3941,"Ġdiagn":3942,"^\\":3943,"Ġaccordingly":3944,"ĠKeep":3945,"Ġrecognize":3946,"ĠLim":3947,"Ġvalid":3948,"Ġcomprehen":3949,"Ġage":3950,"Ġsubsequent":3951,"entimet":3952,"Ġdiscover":3953,"Cl":3954,"apt":3955,"https":3956,"ĠâĨĴ":3957,"Ġintroduce":3958,"eriv":3959,"Ġisn":3960,"ĠConversely":3961,"Ġdoll":3962,"Ġpolyg":3963,"ĠFractions":3964,"Ġreturn":3965,"Ġhypotenuse":3966,"ĠAC":3967,"rop":3968,"Ġdecreasing":3969,"ĠVer":3970,"Ġissues":3971,"ĊĠ":3972,"Ġabs":3973,"Ġinterior":3974,"Ġstudying":3975,"Ġtrigonometry":3976,"ĠAnd":3977,"Ġdecreases":3978,"Î±":3979,"utions":3980,"Ġions":3981,"lections":3982,"Ins":3983,"Ġbest":3984,")*":3985,"acement":3986,"tom":3987,"ĠUS":3988,"Ġvoltage":3989,"Ġarch":3990,"Ġactivity":3991,"Ġmathematically":3992,"acing":3993,"Ġtrinomial":3994,"Ġinformed":3995,"$\\":3996,"lling":3997,"Ġcharacteristics":3998,"ĠSome":3999,"Ġfamiliar":4000,"36":4001,"img":4002,"ctive":4003,"tif":4004,"Ġpercentage":4005,"Ġdataset":4006,"Ġarise":4007,"Ġresistance":4008,"ederal":4009,"Ġextern":4010,"Ġorient":4011,"ĠReg":4012,"ĠProperties":4013,"Ġcup":4014,"arrang":4015,"ĠGeometric":4016,"Skr":4017,"ĠSum":4018,"Ġmaintaining":4019,"28":4020,"Ġcentimet":4021,"Ġ$-":4022,"Ġbor":4023,"ĠPoint":4024,"be":4025,"nting":4026,"Ġlie":4027,"Ġfav":4028,"ĠCalculate":4029,"Ġdifferentiation":4030,"Ġsolely":4031,"Ġhome":4032,"Comp":4033,"Ġimag":4034,"Ġpredict":4035,"Ġcontribute":4036,"Ġauthor":4037,"Ġtradition":4038,"Ġradical":4039,"chers":4040,"Ġachieve":4041,"ĠCl":4042,"rated":4043,"Ġneg":4044,"bo":4045,"Ġpolar":4046,"hemistry":4047,"Ġgoes":4048,"Ġpreviously":4049,"Ġscience":4050,"Ġreveals":4051,"ĠReal":4052,"Ġmanipulate":4053,"Ġaccumulation":4054,"Ġsug":4055,"Ġname":4056,"Ġperson":4057,"Ġparamet":4058,"Ġobservations":4059,"hol":4060,"value":4061,"Ġshifts":4062,"Notice":4063,"Ġforward":4064,"Ġrelate":4065,"Ġthereby":4066,"Ġmiddle":4067,"Ġdiseases":4068,"ĠRel":4069,"Ġconstit":4070,"Ġintroduced":4071,"Ġrepeated":4072,"ĠIndeed":4073,",-":4074,"action":4075,"ape":4076,"Ġenvironmental":4077,"Ġintuition":4078,"Ġetc":4079,"osen":4080,"Ġinvestig":4081,"Ġcircular":4082,"Ġportion":4083,"qysrK":4084,"Ġtheore":4085,"cessive":4086,"tally":4087,"Ġevolution":4088,"Ġrequiring":4089,"Ġlogarithm":4090,"Ġreduced":4091,"Ġlanguage":4092,"imgur":4093,"vant":4094,"Ġmarkets":4095,"Ġdescribed":4096,"sh":4097,"ĠÏ":4098,"ĠMathematically":4099,"Ġchallenge":4100,"Solving":4101,"Ġsignificance":4102,"Ġhistorical":4103,"These":4104,"Ġdiagram":4105,"appro":4106,"Ġrestric":4107,"ĠDeriv":4108,"ĠInd":4109,"ok":4110,"ably":4111,"ĠAnalyz":4112,"Ġreciprocal":4113,"App":4114,"Integ":4115,"Ġalternative":4116,"Ġincludes":4117,"idered":4118,"Ġstatistics":4119,"olar":4120,"uses":4121,"Ġtransi":4122,"Ġcombination":4123,"ĠProbability":4124,"atest":4125,"Ġlibra":4126,"Ġfactored":4127,"[(":4128,"Ġbuy":4129,"Ġspeaking":4130,"Area":4131,"rative":4132,"cepts":4133,"Ġexternal":4134,"}}}}":4135,"Ġchosen":4136,"Ġconsidered":4137,"VVVV":4138,"ket":4139,"ĠBoth":4140,"ĠDifferen":4141,"ĠForm":4142,"Ġneeds":4143,"Ġnor":4144,"asses":4145,"mpl":4146,"Ġconfirm":4147,"from":4148,"icial":4149,"ĠSolve":4150,"Ġnetwor":4151,"Ġproteins":4152,"Ġdeviation":4153,"Ġlooks":4154,"has":4155,"Ġdu":4156,"Ġinputs":4157,"Ġidentities":4158,"Ġseven":4159,"Ġstability":4160,"ĠâĪł":4161,"Ġtherefore":4162,"Ġpizza":4163,"ĠEmp":4164,");":4165,"Ġbook":4166,"Ġplus":4167,"cer":4168,"Ġpict":4169,"Ġcentury":4170,"atrix":4171,"Ġdot":4172,"Ġopens":4173,"Ġamounts":4174,"Ġhorizontally":4175,"Ġmarginal":4176,"}}\\":4177,"ĠDo":4178,"Ġwar":4179,"ils":4180,"ĠDE":4181,"\\),":4182,"Ġfood":4183,"unities":4184,"Ġkine":4185,"Ġcollect":4186,"Ġmut":4187,"Ġpolicy":4188,"ĠTriangle":4189,"Ġpositions":4190,"ĠEstimating":4191,"OH":4192,"Ġ27":4193,"ips":4194,"Ġroles":4195,"Ġfu":4196,"oting":4197,"uracy":4198,"Ġobserved":4199,"ĠComb":4200,"Ġprecisely":4201,"NDQ":4202,"clu":4203,"Ġprobabilities":4204,"Ġconnections":4205,"land":4206,"itect":4207,"Ġdy":4208,"Ġinternal":4209,"lock":4210,"Ġinv":4211,"omy":4212,"Ġpounds":4213,"life":4214,"aced":4215,"Ġproducing":4216,"cient":4217,"Ġorganisms":4218,"Ġpaper":4219,"Ġgenerate":4220,"Ġmolecule":4221,"Ġrepresentations":4222,"changed":4223,"\\).":4224,"osph":4225,"Ġelement":4226,"64":4227,"Ġdays":4228,"Ġsatisfies":4229,"ening":4230,"Ġimproper":4231,"Ġcapacity":4232,"Ġbact":4233,"acy":4234,"Ġface":4235,"Ġcyl":4236,"Ġaccuracy":4237,"................":4238,"Ġlibrary":4239,"\\\\":4240,"vf":4241,"Ġpublic":4242,"Ġconsequ":4243,"gorith":4244,"Ġbroad":4245,"Insert":4246,"Ġcand":4247,"Ġlist":4248,"acks":4249,"Ġmembrane":4250,"',":4251,"deriv":4252,"Ġsources":4253,"rior":4254,"Ġcore":4255,"Ġgall":4256,"Ġdecomp":4257,"ĠCirc":4258,"values":4259,"ĠAc":4260,"35":4261,"ones":4262,"Ġwaves":4263,"Ġimmedi":4264,"Rec":4265,"Ġregrouping":4266,"atistics":4267,"Ġrows":4268,"Ġalk":4269,"ĠSecond":4270,"ata":4271,"Ġbeli":4272,"Ġangular":4273,"\\]":4274,"elling":4275,"Ġloss":4276,"Ġproficient":4277,"icals":4278,"Ġreduce":4279,"Ġsugar":4280,"Ġchrom":4281,"forward":4282,"Ġchemistry":4283,"Ġcolumns":4284,"Ġcreated":4285,"ativity":4286,"Ġdisplacement":4287,"Ġarter":4288,"la":4289,"Ġspread":4290,")|":4291,"Get":4292,"Ġfaced":4293,"Ġcolor":4294,"Ġoffer":4295,"vities":4296,"Ġconstraints":4297,"Ġopportunities":4298,"aily":4299,"Ġwhenever":4300,"Ġthinking":4301,"Ġresp":4302,"Ġnever":4303,"tives":4304,"tes":4305,"Ġded":4306,"ĠEvaluating":4307,"ogen":4308,"Ġoffers":4309,"ĠPlace":4310,"ĠAngle":4311,"ĠABC":4312,"Ġresearchers":4313,"Ġcause":4314,"raft":4315,"ĠDraw":4316,"Ġscal":4317,"Ġexperience":4318,"long":4319,"pped":4320,"Ġfast":4321,"Ġlogarithms":4322,"Ġstraightforward":4323,"Ġmanipulation":4324,"Ġotherwise":4325,"Ġestimation":4326,"''(":4327,"dered":4328,"99":4329,"Â³":4330,"Ġbottom":4331,"ĠHistory":4332,"Ġbag":4333,"duc":4334,"Ġphase":4335,"Ġinfinitely":4336,"Ġinterm":4337,"ĠTotal":4338,"qqqqqqqqqqqqqqqq":4339,"==":4340,"alpha":4341,"Ġsympt":4342,"Ġlonger":4343,"inder":4344,"AS":4345,"Ġfram":4346,"Ġaxes":4347,"Ġflour":4348,"Ġextend":4349,"quare":4350,"etal":4351,"ached":4352,"Ġphot":4353,"Ġreflecting":4354,"Ġdependent":4355,"Ġinner":4356,"ancing":4357,"Ġdens":4358,"ĠAccording":4359,"Ġdisplay":4360,"Ġconj":4361,"iIiIiIiIiIiIiIiI":4362,"pa":4363,"Ġdecision":4364,"Ġcorre":4365,"ysiology":4366,"Ġcentimeters":4367,"ier":4368,"Ġinver":4369,"econom":4370,"asing":4371,"Ġoutcome":4372,"Ġinvestment":4373,"ime":4374,"ĠTy":4375,"Ġalgorith":4376,"abling":4377,"ope":4378,"ystem":4379,"BC":4380,"mis":4381,"ĠĠĠĠĠĠ":4382,"Ġpul":4383,"Ġrights":4384,"Ġdensity":4385,"Ġlens":4386,"Ġsuper":4387,"ĠModel":4388,"CO":4389,"Ġslow":4390,"Ġchapters":4391,"Ġapproximate":4392,"Ġsurrounding":4393,"iguration":4394,"Ġsold":4395,"Ġmodeling":4396,"Ġdilation":4397,"hand":4398,"}+\\":4399,"inant":4400,"Ġantideriv":4401,"Ġmot":4402,"Ġenabling":4403,"Ġparticles":4404,"Ġthera":4405,"ĠSlope":4406,"Ġgrasp":4407,"markdown":4408,"200":4409,"Ġdiffer":4410,"Ġfluid":4411,"Ġmuscle":4412,"Ġmedicine":4413,"Once":4414,"ecause":4415,"Ġindicate":4416,"]{":4417,"Ġcomplexity":4418,"Ġclosely":4419,"ĠDetermining":4420,"Ġtoward":4421,"Ġund":4422,"Ġunchanged":4423,"âģ¡":4424,"ĠCount":4425,"Ġsaid":4426,"Ġcounting":4427,"Ġhighest":4428,"ĠRead":4429,"Ġhence":4430,"Ġinteract":4431,"Ġblock":4432,"Ġfalls":4433,"Ġdiscussed":4434,"veled":4435,"ĠFigure":4436,"ash":4437,"Ġadapt":4438,"Ġsound":4439,"mpling":4440,"negative":4441,"Ġstatistical":4442,"AC":4443,"Ġfill":4444,"ethe":4445,"osp":4446,"Ġsimilarity":4447,"Ġstatement":4448,"Ġstret":4449,"Ġappe":4450,"Ġ\\((":4451,"Ġmonomials":4452,"Ġperspec":4453,"00000000":4454,"Ġdaily":4455,"Ġann":4456,"Ġeconomy":4457,"Ġeventually":4458,"circ":4459,"Ġstage":4460,"rug":4461,"eta":4462,"Ġefficient":4463,"Ġarchitect":4464,"luc":4465,"Ġhypothesis":4466,"ĠSimplify":4467,"Ġweek":4468,"ĊĠĠĠĠĠĠĠĠ":4469,"lugging":4470,"encing":4471,"yc":4472,"Ġcrit":4473,"etheless":4474,"ectors":4475,"zed":4476,"tility":4477,"Ġ70":4478,"Ġtreatment":4479,"Ġimprove":4480,"Ġsummari":4481,"Ġresponsible":4482,"09":4483,"Ar":4484,"Ġloo":4485,"Ġgenerally":4486,"Ġconfiguration":4487,"Ġeliminate":4488,"ĠAb":4489,"ĠNegative":4490,"Ġtiss":4491,"Ġbill":4492,"Ġacids":4493,"Ġdemonstrate":4494,"Ġtaken":4495,"une":4496,"Ġensures":4497,"ĠCD":4498,"Ġyourself":4499,"ĠExamples":4500,"ĠTrig":4501,"Ġincorpor":4502,"Ġbis":4503,")^{":4504,"ĠUse":4505,"Ġrelatively":4506,"Ġarra":4507,"Ġinflation":4508,"Ġpenc":4509,"ially":4510,"forts":4511,"Ġves":4512,"izations":4513,"Ġefficiency":4514,"ĠLimits":4515,"Ġfavor":4516,"32":4517,"Ġuni":4518,"Ġresearch":4519,"Ġkil":4520,"Ġoptimal":4521,"Ġcharges":4522,"zation":4523,"Ġalone":4524,"Ġcomplementary":4525,"Ġupward":4526,"Ġprior":4527,"Ġcomputer":4528,"AT":4529,"Ġliving":4530,"ĠStep":4531,"Ġderive":4532,"Ġpasses":4533,"He":4534,"Ġtherm":4535,"Ġconcrete":4536,"Ġbank":4537,"05":4538,"Ġapproximation":4539,"Ġobservation":4540,"oot":4541,"ĠAD":4542,"Ġcauses":4543,"lish":4544,"mod":4545,"Ġimplications":4546,"Ġshowing":4547,"qK":4548,"ule":4549,"Ġvital":4550,"Ġconsequences":4551,"Ġclim":4552,"Ġemb":4553,"Ġmere":4554,"Ġcontrast":4555,"Ġrigorous":4556,"Ġtransfer":4557,"Ġequality":4558,"while":4559,"Ġswit":4560,"ĠAnalyzing":4561,"cell":4562,"Ġproced":4563,"Ġpresented":4564,"Re":4565,"most":4566,"Ġcapt":4567,"Ġprimarily":4568,"Ġcomposition":4569,"Ġlargest":4570,"Before":4571,"Ġarm":4572,"Ġcompleting":4573,"âĪĤ":4574,"Substituting":4575,"term":4576,"Ġgoverning":4577,"Ġmicro":4578,"Ġnav":4579,"Ġreact":4580,"Ġstrategy":4581,"Ġmomentum":4582,"+(":4583,"Ġvarying":4584,"Ġ28":4585,"vb":4586,"ĠPar":4587,"Simplifying":4588,"Ġ}":4589,"Ġmonth":4590,"Pre":4591,"Ġdau":4592,"ĠStrateg":4593,"Ġenz":4594,"Ġweak":4595,"Ġdescribes":4596,"Ġranging":4597,"Ġstrength":4598,"Ġtraveled":4599,"Ġoverl":4600,"ĠEquation":4601,"Ġborrow":4602,"If":4603,"Ġalter":4604,"Ġfunctional":4605,"Ġpurp":4606,"Ġthought":4607,"Ġmatch":4608,"].":4609,"Ġerrors":4610,"Ġhar":4611,"Ġknowing":4612,"Ġrecur":4613,"ĠAlthough":4614,"Ġfaces":4615,"Ġefforts":4616,"ina":4617,"Ġrough":4618,"Ġfinite":4619,"Ġundergo":4620,"Ġgreatest":4621,"Ġnumerators":4622,"Ġtechnology":4623,"Equ":4624,"Ġconve":4625,"Ġful":4626,"elf":4627,"Ġanaly":4628,"Ġprotein":4629,"}-":4630,"ink":4631,"Ġgets":4632,"Ġtests":4633,"Ġâī¤":4634,"Ġsales":4635,"Ġpost":4636,"ĠNonetheless":4637,"ĊĠĠĠ":4638,"ĠTest":4639,"Ġdiscon":4640,"Ġaccess":4641,"ĠJoh":4642,"CF":4643,"^(-":4644,"Ġtail":4645,"Ġeduc":4646,"Ġconsumption":4647,"ielding":4648,"rum":4649,"Ġampl":4650,"Ġstands":4651,"Ġexperiment":4652,"Ġasse":4653,"istrib":4654,"time":4655,"Ġcategories":4656,"Ġselection":4657,"Ġdt":4658,"Ġconfid":4659,"Ġfactorization":4660,"olumes":4661,"Ġassess":4662,"Ġsent":4663,"Ġcompounds":4664,"Ġfederal":4665,"liers":4666,"Ġneither":4667,"Ġfocusing":4668,"Ġwa":4669,"Ġconflic":4670,"MzMzMzMzMzMzMzMzMzMzMzMzMzMzMzMz":4671,"oy":4672,"Ġinherent":4673,"bb":4674,"Ġecos":4675,"Ġ32":4676,"ĠDuring":4677,"Ġimaginary":4678,"atically":4679,"mi":4680,"otic":4681,"Ġunde":4682,"Ġoutputs":4683,"Ġpossibilities":4684,"ĠWhe":4685,"Ġdemoc":4686,"Ġextreme":4687,"Ġcircuit":4688,"air":4689,"secutive":4690,"Ġsociety":4691,"Ġlaws":4692,"ĠConvert":4693,"gn":4694,"Ġnit":4695,"ĠSet":4696,"^{\\":4697,"Ġtranslation":4698,"ysics":4699,"ĠÃ·":4700,"Ġsmooth":4701,"Ġreaching":4702,"man":4703,"Ġaccomp":4704,"Ġge":4705,"intercepts":4706,"Ġrelig":4707,"Ġsaf":4708,"Ġsymptoms":4709,"Total":4710,"ĠImp":4711,"Ġverify":4712,"Ġ75":4713,"Ġarbitrary":4714,"Ġdynamics":4715,"Ġconfident":4716,"Ġquar":4717,"Ġconfidently":4718,"Ġconclusions":4719,"Ġcommunication":4720,")$$":4721,"Ġadvantage":4722,"wers":4723,"Ġcla":4724,"\\*(":4725,"\\,":4726,"Ġorientation":4727,"And":4728,"back":4729,"Ġlung":4730,"igid":4731,"ĠCre":4732,"Ġcharacterized":4733,"Ġrelevant":4734,"ging":4735,"ĠRati":4736,"Ġresist":4737,"Ġbasis":4738,"Ġemphas":4739,"Ġgrouping":4740,"Ġcorrectly":4741,"hetic":4742,"entists":4743,"Ġactivities":4744,"Ġgrid":4745,"Ġtheoretical":4746,"Ġmember":4747,"itiz":4748,"[\\":4749,"culatory":4750,"Ġproject":4751,"ĠLe":4752,"Ġequally":4753,"Ġcongruence":4754,"________":4755,"nswer":4756,"ront":4757,"Ġeffective":4758,"Ġupper":4759,"Ġcaused":4760,"Ġexclu":4761,"Ġpicture":4762,"Ġliqu":4763,"ĠGree":4764,"pies":4765,"pendent":4766,"lective":4767,"Ġintim":4768,"Ġuses":4769,"Ġstudent":4770,"pecially":4771,"Ġfost":4772,"ĠPart":4773,"Ġcompetition":4774,"qquad":4775,"Ġtrack":4776,"Ġturns":4777,"Ġox":4778,"oidal":4779,"ĠDefin":4780,"asic":4781,"ĠRad":4782,"celes":4783,"Ġchild":4784,"osceles":4785,"Ġproduces":4786,"ork":4787,"Ġperformance":4788,"Ġconsecutive":4789,"ressing":4790,"Ġvent":4791,"Ġcubes":4792,"clusion":4793,"nZ":4794,"odi":4795,"Ġstore":4796,"Ġapplies":4797,"Ġeverything":4798,"Ġ->":4799,"Ġexceed":4800,"ĠSe":4801,"que":4802,"))^":4803,"ilon":4804,"Ġdownward":4805,"Ġfif":4806,"Ġconser":4807,"Ġupwards":4808,"Ġespecially":4809,"Ġmention":4810,"ĠDivision":4811,"rates":4812,"ctu":4813,"Ġquantitative":4814,"Worked":4815,"Similar":4816,"Ġsource":4817,"ĠStud":4818,"Ġtemperatures":4819,"akers":4820,"||||||||":4821,"Ġshall":4822,"Ġquadrilateral":4823,"ĠEn":4824,"Ġdrug":4825,"ocy":4826,"ibility":4827,"Ġprotect":4828,"versal":4829,"Ġaimed":4830,"Ġled":4831,"ĠLine":4832,"ĠTransform":4833,"Ġrob":4834,"ioqK":4835,"ography":4836,"Ġslices":4837,"Ġcapable":4838,"Ġconjug":4839,"enced":4840,"Ġsurp":4841,"Ġbiology":4842,"Ġwish":4843,"ĠpH":4844,"orders":4845,"Ġcharacters":4846,"Ġcharged":4847,"Ġmanageable":4848,"Ġdiscontinu":4849,"Ġundefined":4850,"ĠLCM":4851,"ĠNe":4852,"Ġdetails":4853,"Ġla":4854,"ength":4855,"yle":4856,"ĠVis":4857,"Ġpotentially":4858,"Ġconnected":4859,"ĠGeometry":4860,"Ġmarbles":4861,"ĠTrigonomet":4862,"Ġconvergence":4863,"Ġseen":4864,"Ġnoting":4865,"Ġdividend":4866,"nch":4867,"Ġvolumes":4868,"rict":4869,"nches":4870,"}{(":4871,"ounding":4872,"Ġroom":4873,"ĠChang":4874,"uler":4875,"Ġdeepen":4876,"Ġdiagrams":4877,"Ġinteresting":4878,"ĠGraphs":4879,"ĠAT":4880,"ticians":4881,"Ġ21":4882,"Ġfinally":4883,"Ġgrab":4884,"Ġ120":4885,"Ġasymptotes":4886,"âĶ":4887,"Ġlimited":4888,"Ġelectrical":4889,"Ġconnection":4890,"Ġrearrang":4891,"Ġstri":4892,"ferences":4893,"Ġedge":4894,"Through":4895,"\\;\\;\\;\\;":4896,"Ġnavig":4897,"Ġfru":4898,"Ġlikely":4899,"tension":4900,"renc":4901,"Ġdiscip":4902,"Ġsymbols":4903,"Ġchoice":4904,"Ġtraditional":4905,"Ġshaping":4906,"sis":4907,"Ġey":4908,"Ġscatter":4909,"Problem":4910,"hel":4911,"Pj":4912,"Ġske":4913,"Ġrely":4914,"Ġorganic":4915,"aligned":4916,"Ġinterpretation":4917,"ĠWhether":4918,"acro":4919,"Ġwants":4920,"Ġdiagonal":4921,"ourage":4922,"ah":4923,"ĠReading":4924,"ption":4925,"Ġec":4926,"Ġordered":4927,"Ġemo":4928,"ĠCir":4929,"Ġexplain":4930,"Ġ$$\\":4931,"Ġcultural":4932,"Ġremo":4933,"Ġprep":4934,"approx":4935,"base":4936,"Ġsal":4937,"âīĪ":4938,"olic":4939,"Ġsuit":4940,"Sc":4941,"Ġcardi":4942,"?\",":4943,"usion":4944,"Ġspaces":4945,"ĠExpl":4946,"ĠQuadratic":4947,"})^":4948,"Ġcivil":4949,"oses":4950,"Ġdiscussion":4951,"Ġsuggests":4952,"ognizing":4953,"Ġexperiences":4954,"Ġmarked":4955,"ĠâĪ«[":4956,"Ġresid":4957,"Ġvariation":4958,"Ġ500":4959,"vit":4960,"&\\":4961,"ĠCost":4962,"ĠĠĠĠĠĠĠ":4963,"Ġdemonstrates":4964,"ires":4965,"vere":4966,"rine":4967,"ĠAss":4968,"Lastly":4969,"Ġacting":4970,"Ġquotients":4971,"34":4972,"Ġtro":4973,"Ġdepic":4974,"Ġformal":4975,"78":4976,"rat":4977,"Ġalle":4978,"Ġscientists":4979,"val":4980,"idating":4981,"ĠObjective":4982,"Ġpredictions":4983,"Ġplant":4984,"Ġimmediately":4985,"Ġperc":4986,"allest":4987,"Ġdiving":4988,"ĠOther":4989,"Ġallowed":4990,"Ġattemp":4991,"Ġast":4992,"Ġsimplified":4993,"Ġcomparison":4994,"500":4995,"Ġaffects":4996,"Ġbanks":4997,"since":4998,"nts":4999,"+/":5000,"}_":5001,"osure":5002,"Recall":5003,"Ġmastery":5004,"Ġendpoints":5005,"Conclusion":5006,"Ġep":5007,"pez":5008,"Ġinstitution":5009,"Ġaddress":5010,"Ġfrequently":5011,"Graph":5012,"Ġdomin":5013,"Ġestimating":5014,"ĠSubstituting":5015,"Geomet":5016,"Ġdest":5017,"Ġservices":5018,"Ġassign":5019,"Ġsens":5020,"Ġmanagement":5021,"Ġinscribed":5022,"Ġatm":5023,"Ġargument":5024,"From":5025,"Multiplying":5026,"Ġsus":5027,"Ġrelates":5028,"Ġscores":5029,"Ġfirms":5030,"Ġparticle":5031,"Ġabsor":5032,"Ġmx":5033,"Ġrevolution":5034,"Ġdecide":5035,"}^{\\":5036,"Ġsizes":5037,"Ġsust":5038,"sia":5039,"Ġspect":5040,"ĠStart":5041,"dnZ":5042,"rical":5043,"Ġselling":5044,"$)":5045,"Ġoptions":5046,"Ġdollars":5047,"Ġspecified":5048,"Ġconsideration":5049,"Ġmillion":5050,"iform":5051,"ĠDifferenti":5052,"iction":5053,"Ġnotable":5054,"Ġplants":5055,"rice":5056,"Ġpersonal":5057,"ĠConstitution":5058,"hood":5059,"Ġdev":5060,"Ġsampling":5061,"Applying":5062,"Ġdaunting":5063,"Ġtesting":5064,"ubtra":5065,"eled":5066,"Ġcitiz":5067,"ĠPlot":5068,"Ġdrawn":5069,"oli":5070,"Ġinflection":5071,"Ġ<=":5072,"ositive":5073,"hold":5074,"ifest":5075,"ĠCent":5076,"Ġpolicies":5077,"Ġintersects":5078,"paration":5079,"Ġblue":5080,"arch":5081,"ollowing":5082,"Ġideal":5083,"Ġanswers":5084,"Ġperiods":5085,"Ġlabel":5086,"Ġdriving":5087,"ĠAf":5088,"ĠAppro":5089,"Ġsummarize":5090,"Ġusually":5091,"atively":5092,"Ġsoon":5093,"Ġbring":5094,"Ġgravity":5095,"Ġreflections":5096,"Ġbegan":5097,"Ġabst":5098,"Ġrounding":5099,"ĠConverting":5100,"Ġfirm":5101,"Ġdam":5102,"Ġreflects":5103,"âģ¡(":5104,"70":5105,"ĠĠĠĠĠĠĠĠĠĠĠĠĠĠĠĠ":5106,"anes":5107,"Ġchlor":5108,"Ġcancel":5109,"Wh":5110,"ynt":5111,"arb":5112,"play":5113,"Ġgenerated":5114,"Ġgreat":5115,"Similarly":5116,"Ġbir":5117,"Ġfeed":5118,"Ġconsisting":5119,"ming":5120,"ware":5121,"Ġnut":5122,"Ġsquared":5123,"Ġpiecewise":5124,"Ġrecept":5125,"Ġneuro":5126,"cohol":5127,"ĠEstimate":5128,"Ġextrema":5129,"ocal":5130,"Ġperfectly":5131,"ricult":5132,"Ġrelation":5133,"Ġsimplifying":5134,"Ġmir":5135,"ressions":5136,"ressive":5137,"Ġsubstituting":5138,"Î²":5139,"Ġpack":5140,"Ġrigid":5141,"active":5142,"Ġdeveloped":5143,"Ġsustain":5144,"98":5145,"ae":5146,"iology":5147,"ĠLab":5148,"ĠAltern":5149,"}.$$":5150,"ĠBecause":5151,"Ġfinance":5152,"ĠDecimal":5153,"Ġvessel":5154,"mb":5155,"allel":5156,"Ġroad":5157,"Ġimplying":5158,"tractor":5159,"oman":5160,"unction":5161,"dies":5162,"}\\)":5163,"Ġclearly":5164,"Ġisosceles":5165,"Ġ#":5166,"Ġmode":5167,"ĠGerm":5168,"ructing":5169,"Understanding":5170,"Ġimple":5171,"Ġhom":5172,"ynamic":5173,"Health":5174,"ĠJohn":5175,"ror":5176,"ingu":5177,"Ġold":5178,"ĠStatistics":5179,"Ġlegs":5180,"Ġmach":5181,"ĠExt":5182,"ishing":5183,"Ġdisp":5184,"Ġpersist":5185,"Ġreaches":5186,"Ġeasy":5187,"Ġclosed":5188,"Answer":5189,"bW":5190,"Ġphysiology":5191,"Ġmentioned":5192,"Ġcentered":5193,"ancy":5194,"ck":5195,"leq":5196,"Ġquite":5197,"Ġvariations":5198,"Ġregression":5199,"Ġexperimental":5200,"Ġsmallest":5201,"Ġinstances":5202,"Ġavoid":5203,"Ġscalar":5204,"onses":5205,"Ġsuccessfully":5206,"ĠElect":5207,"cription":5208,"off":5209,"Ġsuff":5210,"ĠLike":5211,"Ġtask":5212,"igma":5213,"Ġyielding":5214,"rogen":5215,"Ġ48":5216,"Ġhelpful":5217,"brid":5218,"aged":5219,"Ġdeli":5220,"Ġimplement":5221,"ĠRNA":5222,"ought":5223,"Ġexercise":5224,"matrix":5225,"}-\\":5226,"65":5227,"Ġchoosing":5228,"Ġfuel":5229,"gent":5230,"rep":5231,"ades":5232,"Ġacute":5233,"mathrm":5234,"Ġopportunity":5235,"Ġ360":5236,"Ġsupple":5237,"Ġapart":5238,"usoidal":5239,"Ġlowest":5240,"lined":5241,"Ġmess":5242,"ĠHy":5243,"Ġhouse":5244,"round":5245,"Ġcountry":5246,"Ġprogress":5247,"mend":5248,"mo":5249,"Ġdone":5250,"ran":5251,"Ġarises":5252,"ĠTime":5253,"Ġdiscount":5254,"Ġevenly":5255,"Ġutilize":5256,"Ġregulation":5257,"ĠSimplifying":5258,"Ġnewly":5259,"Ġdetermines":5260,"fficient":5261,"Ġregul":5262,"Ġjud":5263,"Our":5264,"Ġtransformed":5265,"Ġplug":5266,"ipe":5267,"vale":5268,"Ġminute":5269,"ĠAngles":5270,"ĠBe":5271,"Â°.":5272,"ĠDespite":5273,"Ġcandid":5274,"ival":5275,"theless":5276,"Ġasymptote":5277,"uf":5278,"Ġpress":5279,"Ġoccup":5280,"Ġphenomenon":5281,"Ġdisciplines":5282,"Ġexisting":5283,"Ġreli":5284,"Ġprotractor":5285,"48":5286,"Ġconstruction":5287,"Note":5288,"Ġdistribute":5289,"Ġrapidly":5290,"Adding":5291,"substit":5292,"ructure":5293,"Ġexciting":5294,"Ġliter":5295,"Ġcomprehension":5296,"Ġkinetic":5297,"gE":5298,"oming":5299,"itude":5300,"ĠRepresent":5301,"Ġfair":5302,"ĠProof":5303,"Ġappreciation":5304,"Ġfully":5305,"42":5306,"II":5307,"Ġnational":5308,"Ġvast":5309,"Ġourselves":5310,"Ġhighly":5311,"Ġthousands":5312,"onic":5313,"Ġranges":5314,"Ġrepeating":5315,"Ġbranches":5316,"Ġreturns":5317,"------":5318,"Ġperiodic":5319,"monary":5320,"ĠAfric":5321,"Ġorbit":5322,"Ġcarrying":5323,"Ġeconomics":5324,"Ġboundary":5325,"ĠNewton":5326,"ĠCE":5327,"evertheless":5328,"ĠProblem":5329,"Ġdeveloping":5330,"Ġreduces":5331,"qysrKSkr":5332,"Ġexamination":5333,"Ġmovements":5334,"ĠValu":5335,"ĠIdentifying":5336,"Ġspending":5337,"Ġoxid":5338,"ructions":5339,"forms":5340,"Ġidentif":5341,"SkrK":5342,"Ġpromoting":5343,"}\\\\":5344,"Integrated":5345,"Ġbacteria":5346,"Ġharmon":5347,"Ġsq":5348,"Ġstable":5349,"Ġconcerns":5350,"Ġscales":5351,"Ġforeign":5352,"Dividing":5353,"Ġconcentrations":5354,"Ġdemonstrated":5355,"tiv":5356,"Ġever":5357,"Ġalthough":5358,"Ġconverges":5359,"ĠRevolution":5360,"Ġneur":5361,"Ġtrip":5362,"Ġdiscrim":5363,"Ġstructural":5364,"Ġexercises":5365,"hal":5366,"Ġpen":5367,"Ġattra":5368,"Ġseconds":5369,"Ġfunds":5370,"infor":5371,"Ġmor":5372,"Ġcurrenc":5373,"Ġgradu":5374,"Ġbat":5375,"Ġbecame":5376,"ino":5377,"eries":5378,"agon":5379,"ured":5380,"Ġraising":5381,"Ġsharing":5382,"Ġphosph":5383,"Throughout":5384,"ĠAmend":5385,"Ġpractices":5386,"udes":5387,"Ġclaim":5388,"Ġdebt":5389,"Ġchromos":5390,"gEgE":5391,"Ġmetric":5392,"ologies":5393,"Ġ[-":5394,"Ġprofound":5395,"ĠModeling":5396,"Ġventric":5397,"ĠNevertheless":5398,"Ġshares":5399,"Ġwidget":5400,"Ġtranslate":5401,"Ġanimals":5402,"Ġmembers":5403,"Or":5404,"outh":5405,"aut":5406,"Ġfoot":5407,"Ġreplace":5408,"Ġ$(\\":5409,"arities":5410,"Ġintercepts":5411,"DP":5412,"Ġbr":5413,"Ġstru":5414,"ĠLength":5415,"âĢĵ":5416,"ĠCongress":5417,"Ġexplicitly":5418,"Ġintermedi":5419,"Ġfaster":5420,"Ġnutri":5421,"Ġacqu":5422,"Ġdirections":5423,"Ġfreed":5424,"Ġfli":5425,"Ġimplicit":5426,"Ġterrit":5427,"mathbb":5428,"ners":5429,"itor":5430,"Ġquart":5431,"orts":5432,"Ġreflected":5433,"Ġbenefits":5434,"Ġhim":5435,"Ġvac":5436,"piration":5437,"ĠStrategies":5438,"trans":5439,"Ġliquid":5440,"Ġsignals":5441,"ĠRef":5442,"Ġbiological":5443,"olecular":5444,"ĠBan":5445,"ĠData":5446,"Ġgrows":5447,"pezoid":5448,"'.":5449,"Factor":5450,"Ġrev":5451,"Ġrecord":5452,"Ġfriends":5453,"Ġcriteria":5454,"length":5455,"oun":5456,"idden":5457,"Ġsecur":5458,"Ġheights":5459,"ervous":5460,"Ġreference":5461,"loy":5462,"heck":5463,"Ġreceive":5464,"26":5465,"ether":5466,"Ġconsumer":5467,"ĠMeanwhile":5468,"Ġgallons":5469,"Ġnull":5470,"Ġgraphical":5471,"Ġelastic":5472,"89":5473,"ĠBasic":5474,"aterals":5475,"ĠConf":5476,"Ġrisks":5477,"Exp":5478,"oose":5479,"Ġmechanism":5480,"$-":5481,"Ġtick":5482,"Ġself":5483,"orary":5484,"Ġhistog":5485,"Ġ>=":5486,"Ġshaded":5487,"Ġcitizens":5488,"Ph":5489,"Ġancient":5490,"ĠCO":5491,"also":5492,"Ġoption":5493,"Ġoccurring":5494,"Ġfluctu":5495,"ĠCombining":5496,"div":5497,"ĠCour":5498,"Ġenhance":5499,"Ġversus":5500,"avity":5501,"Ġbelong":5502,"apping":5503,"-(":5504,"ements":5505,"Ġprecision":5506,"rime":5507,"Ġsen":5508,"rupt":5509,"mation":5510,"Ġactions":5511,")\\)":5512,"Ġmanipulating":5513,"Ġresponses":5514,"Ġabstract":5515,"DE":5516,"Subtra":5517,"Ġclu":5518,"Ġgrowing":5519,"QR":5520,"Ġreverse":5521,"Ġ23":5522,"Ġatomic":5523,"Ġedges":5524,"Ġroughly":5525,"slope":5526,"Ġrich":5527,"Ġreduction":5528,"Ġtrend":5529,"Ġissue":5530,"Ġtree":5531,"erve":5532,"Comparing":5533,"Ġdedu":5534,"Ġsun":5535,"Ġrecipe":5536,"Ġconstructing":5537,"Ġbroader":5538,"uing":5539,"pection":5540,"Ġbanan":5541,"ossible":5542,"Ġcreates":5543,"Ġstim":5544,"agnetic":5545,"ĠBegin":5546,"Ġquality":5547,"Ġfoundations":5548,"Ġreveal":5549,"ED":5550,"beta":5551,"Ġcraft":5552,"ĠSquare":5553,"Ġspent":5554,"Ġste":5555,"Ġincluded":5556,"Ġneut":5557,"bmatrix":5558,"Ġgard":5559,"-----":5560,"Ġhandy":5561,"substitution":5562,"ĠNo":5563,"----------":5564,"Ġsoph":5565,"Ġfear":5566,"ĠRecognizing":5567,"ĠAm":5568,"Ġcalculating":5569,"Ġrelease":5570,"ĠAmendment":5571,"Des":5572,"iber":5573,"Ġagricult":5574,"qysrKSkrqysrKSkr":5575,"Ġsophistic":5576,"Ġhidden":5577,"Ġequivale":5578,"Ġactive":5579,"Ġbiodi":5580,"ufact":5581,"Ġcountries":5582,"Ġ=>":5583,"Ġinvestors":5584,"ĠDefining":5585,"ener":5586,"Ġâīł":5587,"Ġcontributing":5588,"Ġexhibits":5589,"mission":5590,"Ġconservation":5591,"olate":5592,"Ġseeking":5593,"Ġ2015":5594,"ĠJust":5595,"dfrac":5596,"such":5597,"Ġstrict":5598,"Ġdie":5599,"Ġlimitations":5600,"On":5601,"Âł":5602,"iratory":5603,"ĠBu":5604,"Ġmatches":5605,"ĠSpecial":5606,"Ġtackling":5607,"Ġpy":5608,"ĠPres":5609,"Ġsummation":5610,"Ġintimidating":5611,"Geometry":5612,"Ġbiodiversity":5613,"Ġpercentages":5614,"Ġmotor":5615,"Ġtou":5616,"ĠPre":5617,"Ġencountered":5618,"Ġcylinder":5619,"Ġdim":5620,"Ġlack":5621,"Ġmonths":5622,"scill":5623,"reen":5624,"Ġlabeled":5625,"ĠArithmetic":5626,"Ġarranged":5627,"Ġwait":5628,"Ġatmosp":5629,"etary":5630,"ilic":5631,"ĠDem":5632,"Ġouter":5633,"Ġcompletely":5634,"Ġannual":5635,"Again":5636,"Ġinstant":5637,"ĠApplications":5638,"Ġtriangular":5639,"Ġfindings":5640,"Ġcounterpart":5641,"There":5642,"da":5643,"%.":5644,"ĠDisc":5645,"Ġrecursive":5646,"ĠNa":5647,")\\*":5648,"Ġaffecting":5649,"Ġbrain":5650,"ĠMeasure":5651,"Ġmist":5652,"Ġcopies":5653,"Ġrh":5654,"aste":5655,"Ġchann":5656,"Ġseems":5657,"Ġreinfor":5658,"ulf":5659,"andard":5660,"Ġreson":5661,"Ġheads":5662,"Ġinspection":5663,"Ġprofits":5664,"Ġmeaningful":5665,"Ġplayed":5666,"Ġantiderivative":5667,"gory":5668,"Ġcred":5669,"ĠCur":5670,"Ġintroducing":5671,"riction":5672,"Ġconsumers":5673,"AAAAAAAAAAAAAAAAAAAAAAAAAAAAAAAAAAAAAAAAAAAAAAAAAAAAAAAAAAAAAAAA":5674,"ctivity":5675,"Ġexcept":5676,"ĠDerivatives":5677,"Ġalcohol":5678,"Ġnovel":5679,"ĠEuropean":5680,"orizon":5681,"Ġapplic":5682,"Ġsolids":5683,"Ġpolygons":5684,"Ġsupplementary":5685,"Ġmile":5686,"Ġutility":5687,"Ġchecking":5688,"rh":5689,"xi":5690,"Ġexec":5691,"Ġ600":5692,"Ġnetworks":5693,"Ġgal":5694,"Ġmanufact":5695,"ĠChina":5696,"Ġfailure":5697,"Ġecosystems":5698,"01":5699,"enz":5700,"---|---|---|---|":5701,"Ġassets":5702,"Ġagg":5703,"anding":5704,"Ġvariance":5705,"Ġfrequencies":5706,"ĠAmerica":5707,"ĠYour":5708,"Ġassuming":5709,"Ġpatients":5710,"{{":5711,"Ġtalk":5712,"Ġgravit":5713,"phi":5714,"ĠCirculatory":5715,"ĠGreat":5716,"Ġalloc":5717,"Ġworked":5718,"ĠSuch":5719,"Ġray":5720,"Ġminus":5721,"Ġidentified":5722,"ĠBl":5723,"Ġestimates":5724,"ixt":5725,"iling":5726,"ĠCor":5727,"ogether":5728,"ĠConnect":5729,"Ġwanted":5730,"Ġequilateral":5731,"ĠScale":5732,"Ġnth":5733,"Ġfoundational":5734,"Ġscaled":5735,"Ġtransition":5736,"mm":5737,"Ġcontract":5738,"Ġestimated":5739,"Ġexpanding":5740,"lucose":5741,"Ġheavi":5742,"Ġmathematicians":5743,"Ġsinusoidal":5744,"?\"":5745,"Ġnonnegative":5746,"Ġnamely":5747,"ĠATP":5748,"ios":5749,"Ġbatter":5750,"ework":5751,"Ġrealm":5752,"ĠConstructing":5753,"Ġalgorithm":5754,"linear":5755,"Ġforth":5756,"Ġstat":5757,"ĠRo":5758,"ĠPrice":5759,"Ġremark":5760,"Ġlandsc":5761,"Ġstrugg":5762,"sided":5763,"ĠAge":5764,"ĠNot":5765,"Ġuniform":5766,"Ġtank":5767,"Ġing":5768,"Ġice":5769,"Ġtexts":5770,"ighb":5771,"Ġ$|":5772,"ĠRounding":5773,"ĠAbsolute":5774,"Di":5775,"Ġnine":5776,"Ġgradi":5777,"Ġdisorders":5778,"Ġcorner":5779,"ĠDistrib":5780,"Ġdiscrete":5781,"Ġmechanical":5782,"Despite":5783,"mol":5784,"Ġmilit":5785,"Ġarti":5786,"Ġcommonly":5787,"pro":5788,"Ġenj":5789,"Ġclimate":5790,"ĠApproxim":5791,"Ġdiversity":5792,"range":5793,"Ġur":5794,"Ġaren":5795,"oxide":5796,"Ġfewer":5797,"Ġuniverse":5798,"&=\\":5799,"Ġtension":5800,"Ġdesigned":5801,"Per":5802,"Ġbx":5803,"Ġtends":5804,"ĠFund":5805,"Ġemploying":5806,"Ġradicals":5807,"Ġuncover":5808,"210":5809,"Ġbud":5810,"ĠAverage":5811,"Ġopening":5812,"ban":5813,"Ġframe":5814,"idth":5815,"abul":5816,"ĠCol":5817,"ĠRule":5818,"Ġbegins":5819,"Ġacts":5820,"Ġdesigning":5821,"ratulations":5822,"top":5823,"Ġappreciate":5824,"Ġinnov":5825,"Ġreferred":5826,"PT":5827,"ura":5828,"Ġsignifies":5829,"care":5830,"Ġcou":5831,"Ġnarrow":5832,"eters":5833,"Ġneighb":5834,"Ġclar":5835,"Ġindividually":5836,"Ġtranslations":5837,"ĠFunction":5838,"ĠValue":5839,"ky":5840,"Ġflo":5841,"Ġseparation":5842,"ĠUnder":5843,"Ġcontinues":5844,"Ġcategory":5845,"Ġloop":5846,"Ġaff":5847,"ĠIns":5848,")).":5849,"lig":5850,"Ġcoin":5851,"ĠPlugging":5852,"Ġpeak":5853,"Equation":5854,"faces":5855,"Ġdomains":5856,"Ġextends":5857,"gin":5858,"Ġpus":5859,"ĠChemistry":5860,"Ġmedical":5861,"Ġcharacteristic":5862,"Ġcatal":5863,"Ġvan":5864,"ĠSci":5865,"ĠEmpire":5866,"Ġlin":5867,"ĠGCF":5868,"Ġbeginning":5869,"Ġmental":5870,"Ġlate":5871,"Ġfourth":5872,"calculus":5873,"itors":5874,"Ġcone":5875,"Ġcellular":5876,"Ġimmune":5877,"uments":5878,"ĠToday":5879,"Ġgenerating":5880,"ĠCompare":5881,"Ġsophisticated":5882,"raction":5883,"ascular":5884,"Ġ42":5885,"Ġreaders":5886,"Ġtissue":5887,"Ġoutliers":5888,"Ġdifferentiable":5889,"Ġactiv":5890,"Ang":5891,"ipped":5892,"Ġ(+":5893,"Ġworry":5894,"net":5895,"ĉĉ":5896,"ĠSystem":5897,"serve":5898,"ethod":5899,"Ġequivalence":5900,"OT":5901,"Ġthing":5902,"Ġgam":5903,"Ġstatements":5904,"Ġhighlights":5905,"Ġcorrelation":5906,"ground":5907,"abil":5908,"Ġaccounting":5909,"ĠMathematics":5910,"Ġeducation":5911,"orizontal":5912,"licity":5913,"|----|----|----|----":5914,"irgin":5915,"Ġserving":5916,"Ġcontinued":5917,"Ġsatisfying":5918,"ĠExponents":5919,"Ġselecting":5920,"economics":5921,"tr":5922,"roke":5923,"ĠShe":5924,"ocabul":5925,"ĠExpressions":5926,"1000":5927,"Ġ22":5928,"ĠRight":5929,"ifications":5930,"ĠInc":5931,"Ġconcavity":5932,"ĠWhy":5933,"SS":5934,"lit":5935,"Ġbon":5936,"ĠMac":5937,"Ġcontact":5938,"Ġends":5939,"Ġeveryday":5940,"Ġdiagon":5941,"Ġspecialized":5942,"Ġchoices":5943,"Ġmerely":5944,"Ġleave":5945,"Ġplaced":5946,"ĠBCE":5947,"Ġbelie":5948,"37":5949,"llust":5950,"opt":5951,"Ġord":5952,")\\,":5953,"Ġeffort":5954,"tible":5955,"ropy":5956,"ĠÎ¼":5957,"Ġdemonstrating":5958,"Ġleaves":5959,"Ġ300":5960,"Ġprefer":5961,"Ġbranch":5962,"Ġperspective":5963,"ĠSu":5964,"Ġexpen":5965,"Ġ201":5966,"Ġmaster":5967,"Ġmount":5968,"umer":5969,"Ġindependence":5970,"ited":5971,"Ġalike":5972,"Ġstock":5973,"unately":5974,"----------------------------":5975,"Ġhyperbol":5976,"49":5977,"bility":5978,"Ġoun":5979,"ĠNor":5980,"Ġcrosses":5981,"Ġconjugate":5982,"\\,\\":5983,"Ġjob":5984,"ĠâĪŀ":5985,"Ġelse":5986,"Ġtaxes":5987,"enari":5988,"section":5989,"urally":5990,"Ġengage":5991,"ĠPerform":5992,"Ġguid":5993,"going":5994,"Ġskew":5995,"sy":5996,"itation":5997,"ift":5998,"Ġsignal":5999,"World":6000,"ocabulary":6001,"Ġ?":6002,"Ġoscill":6003,"deg":6004,"load":6005,"Ġkg":6006,"ales":6007,"Ġchance":6008,"Ġscore":6009,"Ġpressures":6010,"Ġcity":6011,"ĠCar":6012,"ĠCell":6013,"Ġspan":6014,"Ġexpressing":6015,"Ġconcerning":6016,"ĠLabel":6017,"Of":6018,"Then":6019,"Ġmatters":6020,"dium":6021,"Ġsolved":6022,"Ġsystematically":6023,"Ġbananas":6024,"Ch":6025,"Ġill":6026,"Ġdip":6027,"Ġcook":6028,"ĠDistance":6029,"Ġdilations":6030,"Proof":6031,"NS":6032,"Ġdeath":6033,"amer":6034,"ĠMed":6035,"Ġjump":6036,"Ġpopular":6037,"Introduction":6038,"ĠTransformations":6039,"Ġmilitary":6040,"Ġexplo":6041,"ĠBox":6042,"ĠDC":6043,"Ġfeature":6044,"Inter":6045,"solving":6046,"valued":6047,"Ġsamples":6048,"Ġculture":6049,"Ġpercents":6050,"...,":6051,"Ġdescribing":6052,"Ġappeara":6053,"eties":6054,"Ġdetect":6055,"Ġbehaviors":6056,"VVVVVVVV":6057,"Ġpulmonary":6058,"Ġwealth":6059,"lus":6060,"ament":6061,"ĠMark":6062,"Ġtrapezoid":6063,"hemical":6064,"Ġgenes":6065,"Ġpaint":6066,"ĠMeasuring":6067,"Ġinstitutions":6068,"Ġdram":6069,"Ġevol":6070,"Ġcompr":6071,"oft":6072,"Ġwholes":6073,"Ġsecre":6074,"Ġdownwards":6075,"ĠExponent":6076,"Ġstronger":6077,"Ġdemocracy":6078,"Ġresource":6079,"Ġtrigg":6080,"Ġcurrency":6081,"Ġsto":6082,"Ġparty":6083,"Ġcontraction":6084,"56":6085,"ched":6086,"Ġwhite":6087,"ĠRed":6088,"Ġrays":6089,"Ġvariability":6090,"ixar":6091,"Ġhybrid":6092,"ronic":6093,"Ġcommunities":6094,"Ġvessels":6095,"ĠAll":6096,"Ġrout":6097,"Ġcamp":6098,"Ġentirely":6099,"Ġpurchase":6100,"Ġbooks":6101,"Ġamplitude":6102,"Ġdog":6103,"igen":6104,"Ġsteep":6105,"osynt":6106,"abor":6107,"Ġ64":6108,"Ġsurfaces":6109,"Ġparameters":6110,"Ġdamage":6111,"Ġfront":6112,"Intro":6113,"Ġfreedom":6114,"pK":6115,"lihood":6116,"Ġcomparisons":6117,"31":6118,"bre":6119,"Ġexposure":6120,"ĠGDP":6121,"Ġnecessarily":6122,"arant":6123,"Ġnitrogen":6124,"big":6125,"ream":6126,"Ġsixt":6127,"Ġmetal":6128,"Ġrotations":6129,"cellular":6130,"$;":6131,"High":6132,"tbW":6133,"Ġplacing":6134,"Ġlocate":6135,"Ġindustrial":6136,"Ġbudget":6137,"amp":6138,"Ġglucose":6139,"ritis":6140,"ĠProdu":6141,"oss":6142,"oxy":6143,"Ġhandle":6144,")*(":6145,"ellow":6146,"entials":6147,"ensity":6148,"work":6149,"Ġseparated":6150,"Ġimpacts":6151,"arly":6152,"Ġcompass":6153,"Ġinformational":6154,"ĠAmericans":6155,"Ġvocabulary":6156,"Ġgained":6157,"valent":6158,"44":6159,"Ġade":6160,"Ġmetab":6161,"Ġquadrilaterals":6162,"Ġarray":6163,"Ġsector":6164,"Ġmort":6165,"ĠSolutions":6166,"Ġfacilitate":6167,"Ġdiagnosis":6168,"kary":6169,"Ġindependently":6170,"llustrative":6171,"Ġexperienced":6172,"Ġnuclear":6173,"Comb":6174,"}|":6175,"Ġce":6176,"Ġeth":6177,"Ġ||":6178,"Ġgetting":6179,"Ġlittle":6180,"enario":6181,")}\\":6182,"total":6183,"ctan":6184,"lerosis":6185,"ĠCongru":6186,"Ġparametric":6187,"Ġorth":6188,"Ġstay":6189,"Ġstages":6190,"tered":6191,"ÏĢr":6192,"iod":6193,"Ġfamily":6194,"adder":6195,"lob":6196,"Ġimpossible":6197,"Ġimages":6198,"Ġhands":6199,"Ġextending":6200,"arc":6201,"mph":6202,"Ġlikelihood":6203,"Ġdivides":6204,"Ġalgebraically":6205,"Ġarrangement":6206,"ulated":6207,"Ġstarts":6208,"Ġutilizing":6209,"multip":6210,"Ïī":6211,"ened":6212,"ĠFollowing":6213,"rel":6214,"Ġversion":6215,"Ġsket":6216,"Ġenvironments":6217,"Ġcircul":6218,"}}}}}}}}":6219,"Ġremarkable":6220,"87":6221,"Ġask":6222,"Ġjus":6223,"Ġhealthcare":6224,"Illustrative":6225,"Ġthick":6226,"agn":6227,"ĠCivil":6228,"Ġeleg":6229,"Ġfeedback":6230,"Ġpriv":6231,"opol":6232,"Ġbodies":6233,"ective":6234,"Ġsurve":6235,"Ġsimilarly":6236,"ĠPercent":6237,"Ġconflict":6238,"with":6239,"Ġexten":6240,"uries":6241,"odes":6242,"Ġsignaling":6243,"ymes":6244,"minist":6245,"Calculus":6246,"ilding":6247,"Â°)":6248,"Ġreceptors":6249,"Ġwon":6250,"Ġchips":6251,"ega":6252,"titude":6253,"Ġclock":6254,"Ġgarden":6255,"_{\\":6256,"Ġtric":6257,"Ġadult":6258,"ĠRate":6259,"Ġshifting":6260,"Ġkilomet":6261,"sco":6262,"Ġhous":6263,"urin":6264,"Ġcoo":6265,"Ġ72":6266,"ĠDecomp":6267,"Ġcircuits":6268,"irginia":6269,"atomy":6270,"enty":6271,"Ġhope":6272,"Ġconversions":6273,"Ġguarant":6274,"Ġsuitable":6275,"Ġsaw":6276,"Ġwire":6277,"Ġaccept":6278,"Ġincorrect":6279,"ato":6280,"Ġanim":6281,"Ġreprodu":6282,"ĠSubtract":6283,"Ġlayers":6284,"ATCH":6285,"auty":6286,"Ġinstantaneous":6287,"OR":6288,"och":6289,"Ġsom":6290,"Ġongoing":6291,"Ġworkers":6292,"ĠFraction":6293,"Ġswitch":6294,"MD":6295,"Ġly":6296,"ĠStandard":6297,"Ġdistingu":6298,")^(":6299,"ĠPropor":6300,"Ġdiscussing":6301,"Ġpolygon":6302,"/âĪĤ":6303,"haps":6304,"Ġfiber":6305,"Ġmacro":6306,"ilk":6307,"Ġarcs":6308,"Ġjo":6309,"Ġencomp":6310,"Ġproton":6311,"ĠEnd":6312,"Ġ95":6313,"Ġprotection":6314,"risis":6315,"itial":6316,"head":6317,"Ġmit":6318,"ried":6319,"Ġgold":6320,"Ġ400":6321,"Ġ65":6322,"Ġinternational":6323,"laurin":6324,"Ġflat":6325,"Ġdiagonals":6326,"col":6327,"Ġmol":6328,"Ġ78":6329,"ĠCha":6330,"qqqqqqqqqqqqqqqqqqqqqqqqqqqqqqqq":6331,"kes":6332,"ticles":6333,"Ġnegatives":6334,"itis":6335,"Ġ____":6336,"Ġbeauty":6337,"180":6338,"Ġexperiments":6339,"Ġconduct":6340,"Ġwalls":6341,"Ġaudi":6342,"Ġwind":6343,"Ġgases":6344,"âĢ²":6345,"ĠOp":6346,"Ġassumption":6347,"Ġsynthesis":6348,"ĠFundamental":6349,"mut":6350,"Ġinch":6351,"urs":6352,"ctors":6353,"Ġinflam":6354,"Ġrequirements":6355,"66":6356,"Ġfer":6357,"ailout":6358,"Ġholding":6359,"Ġintermediate":6360,"Ġcry":6361,"ume":6362,"Ġliber":6363,"rations":6364,"ĠOut":6365,"Ġpencil":6366,"95":6367,"Ġinhib":6368,"ĠSur":6369,"Ġ229":6370,"Ġprincipal":6371,"Ġattached":6372,"ĠUnlike":6373,"iIiIiIiIiIiIiIiIiIiIiIiIiIiIiIiI":6374,"Ġenzy":6375,"}(\\":6376,"Ġstress":6377,"Ġrever":6378,"ĠMast":6379,"Ġsphere":6380,"Ġradii":6381,"Ġpurchasing":6382,"Ġvice":6383,"Ġclin":6384,"ails":6385,"Ġintersecting":6386,"Ġpolicym":6387,"Ġthermod":6388,"dr":6389,"etes":6390,"sian":6391,"Ġhem":6392,"Ġpromote":6393,"Ġfluctuations":6394,"ĠMaclaurin":6395,"Ġmen":6396,"Ġcomposed":6397,"âĤĥ":6398,"Ġionic":6399,"Ġpatience":6400,"Ġtall":6401,"ĠClose":6402,"Ġsodium":6403,"Ġtechnological":6404,"Ġminimize":6405,"jection":6406,"titive":6407,"ands":6408,"Ġsevere":6409,"Ġhumans":6410,"Ġsubstan":6411,"Ġemerged":6412,"rs":6413,"Ġ150":6414,"Ġcomprehensive":6415,"54":6416,"af":6417,"Ġhard":6418,"ĠÎ£":6419,"Â°,":6420,"run":6421,"Ġseek":6422,"ĠDerivative":6423,"pread":6424,"Ġfruit":6425,"Ġ,":6426,"acies":6427,"Ġspati":6428,"umptions":6429,"Ġtravels":6430,"Ġconvey":6431,"loyment":6432,"oty":6433,"ĠWord":6434,"Ġcontemp":6435,"Ġindefinite":6436,"Ġnaturally":6437,"Ġounces":6438,"iles":6439,"Ġshor":6440,"Ġlocations":6441,"Ġelev":6442,"Arithmetic":6443,"ections":6444,"asis":6445,"Ġ26":6446,"Ġheavily":6447,"Ġwomen":6448,"ishes":6449,"Ġapple":6450,"ĠInf":6451,"Ġoutlined":6452,"Ġaddressing":6453,"Ġcommunic":6454,"Ġsuggesting":6455,"ĠStudents":6456,"ĠCourt":6457,"ĠFe":6458,"ĠRatios":6459,"217":6460,"57":6461,"tuse":6462,"ifference":6463,"Ġnonlinear":6464,"Ġrotational":6465,"itively":6466,"nes":6467,"Ġinteraction":6468,"ĠUpon":6469,"Ġobserving":6470,"Ġdrawings":6471,"Ġfilled":6472,"âĶģ":6473,"iny":6474,"roph":6475,"Ġintegrate":6476,"Ġbonding":6477,"ball":6478,"Ġmph":6479,"Ġ211":6480,"ĠLastly":6481,"Ġreligious":6482,"cm":6483,"Ġlives":6484,"Ġcancer":6485,"Ġmanifest":6486,"Ġillustrating":6487,"Ġplotting":6488,"Ġinfluencing":6489,"Rem":6490,"ius":6491,"ode":6492,"ancel":6493,"Ġunf":6494,"overline":6495,"rief":6496,"ĠPa":6497,"Ġalongside":6498,"Ġmedium":6499,"Ġsubstance":6500,"IV":6501,"aylor":6502,"Ġ37":6503,"Ġsex":6504,"Ġrolling":6505,"Ġtransversal":6506,"___":6507,"Ġassumptions":6508,"ticle":6509,"Ġroll":6510,"Ġfamous":6511,"Ġalternate":6512,"ĠHeart":6513,"Ġlayer":6514,"Me":6515,"}}{\\":6516,"ĠSym":6517,"ffee":6518,"^{(":6519,"Ġcontributions":6520,"coordinates":6521,"cases":6522,"Ġdevices":6523,"ĠTheir":6524,"antum":6525,"Ġintervention":6526,"Ġrunning":6527,"âĪ«[":6528,"ĠGreek":6529,"Ġharmonic":6530,"kers":6531,"Ġflip":6532,"Ġadminist":6533,"Ġsurv":6534,"####":6535,"Ġcategorical":6536,"Ġframework":6537,"Ġdrive":6538,"ipher":6539,"Ġvaries":6540,"Ġconcave":6541,"Ġradio":6542,"Ġengineers":6543,"Ġdeduce":6544,"âĶģâĶģ":6545,"%,":6546,"''":6547,"Calcul":6548,"Ġtraits":6549,"Ġinfer":6550,"Ġclassic":6551,"Ġextended":6552,"Ġactivation":6553,"Ġlosses":6554,"ÎĶx":6555,"Ġprocedure":6556,"CA":6557,"overed":6558,"isp":6559,"ĠMon":6560,"lecting":6561,"Ġpresid":6562,"Ġsecondary":6563,"Ġinverses":6564,"Ġsoft":6565,"stances":6566,"Ġyoung":6567,"ĠEnc":6568,"ĠLog":6569,"arative":6570,"0000000000000000":6571,"ĠTrigonometric":6572,"Ġease":6573,"Ġ29":6574,"terior":6575,"Ġpollu":6576,"Ġnucleus":6577,"Ġpyram":6578,"entions":6579,"ectangle":6580,"Ġobjective":6581,"Ġâī¥":6582,"Ġmixt":6583,"Ġconstitutes":6584,"VD":6585,"Ġfriction":6586,"Ġconfirms":6587,"Ġbounds":6588,"sm":6589,"},\\":6590,"ĠMake":6591,"Ġhalves":6592,"Ġenjoy":6593,"vals":6594,"ratic":6595,"Ġconstructions":6596,"Ġsaving":6597,"Ġconsistency":6598,"SkpK":6599,"ĠPhysics":6600,"ĠGeometrically":6601,"Ġnetwork":6602,"Ġmirror":6603,"ĠEnglish":6604,"Ġrecent":6605,"))/":6606,"Ġstoryt":6607,"`.":6608,"atin":6609,"Ġpreced":6610,"Ġdeterminant":6611,"Ġdepos":6612,"Ġsentence":6613,"function":6614,"hic":6615,"Ġexcessive":6616,"Ġtwenty":6617,"Ġradiation":6618,"Ġgoing":6619,"Ġsuccessive":6620,"*}$$":6621,"Ġversa":6622,"</":6623,"Ġmas":6624,"cean":6625,"iff":6626,"ĠMa":6627,"ĠEast":6628,"Ġsecant":6629,"Ġplugging":6630,"Ġpreserving":6631,"vature":6632,"Ġ$[":6633,"Ġvariety":6634,"ests":6635,"Ġcircumstances":6636,"ĠOverview":6637,"Ġearnings":6638,"ĠTaylor":6639,"Ġtell":6640,"Ġsufficient":6641,"Ġitem":6642,"rier":6643,"Ġremainders":6644,"ĠÎĶx":6645,"Ġarchitecture":6646,"ees":6647,"ken":6648,"Ġ{\\":6649,"Ġexistence":6650,"bar":6651,"Ġcamer":6652,"ĠRoman":6653,"ĠAnother":6654,"Ġbeneath":6655,"Ġcustomers":6656,"Angle":6657,"making":6658,"Ġearth":6659,"Ġenter":6660,"Ġentropy":6661,"Ġslice":6662,"eps":6663,"Ġdiscovered":6664,"Ġbelief":6665,"Ġextensive":6666,"|.":6667,"Ġ218":6668,"Ġdiss":6669,"Ġbuilt":6670,"Ġboundaries":6671,"Ġdriven":6672,"arbon":6673,"Ġspatial":6674,"SE":6675,"Ġrelating":6676,"Ġpron":6677,"vfz":6678,"Ġincorporating":6679,"Ġrent":6680,"ĠIm":6681,"Ġsho":6682,"Ġremove":6683,"Ġgraphically":6684,"Ġgravitational":6685,"âĭ":6686,"Ġorb":6687,"ĠEuler":6688,"Ġadvance":6689,"Ġinfection":6690,"urb":6691,"Ġgains":6692,"Ġentry":6693,"Ġcontrad":6694,"Ġparameter":6695,"Ġchildren":6696,"Ġmap":6697,"Ġobst":6698,"Ġtrials":6699,"Ġcash":6700,"Ġflex":6701,"Ġqual":6702,"Ġquantif":6703,"Ġera":6704,"221":6705,"apsed":6706,"ĠDEF":6707,"osynthesis":6708,"oles":6709,"ĠCan":6710,"romatic":6711,"Ġapparent":6712,"Ġdisorder":6713,"neous":6714,"vention":6715,"Ġmechanics":6716,"ĠExploring":6717,"Ġcookies":6718,"Ġhot":6719,"Ġring":6720,"Ġcommunity":6721,"ĠClass":6722,"Ġarmed":6723,"Ġdiscontinuities":6724,"ession":6725,"blems":6726,"ĠJam":6727,"ĠHeight":6728,"ĠChange":6729,"uff":6730,"Ġdynamic":6731,"Ġlimiting":6732,"Ġwidgets":6733,"tian":6734,"Ġmix":6735,"ĠSeries":6736,"Ġgrams":6737,"Ġdifferently":6738,"Ġevaluated":6739,"Ġcontributes":6740,")}{(":6741,")!":6742,"RT":6743,"Ġcrisis":6744,"Ġsought":6745,"ĠCH":6746,"Ġelectrom":6747,"Ġbuying":6748,"Ġprogram":6749,"Ġeye":6750,"ovation":6751,"Ġnervous":6752,"Ġanything":6753,"Ġdiscussions":6754,"Ġgradually":6755,"mble":6756,"Ġhabit":6757,"ĠMany":6758,"Ġ&\\":6759,"ĠAlso":6760,"Ġapproximations":6761,"Ġliters":6762,"Ġcutting":6763,"Ġsplit":6764,"Ġraise":6765,"array":6766,"Ġpencils":6767,"Ġchannels":6768,"Ġiron":6769,"eration":6770,"Ġwat":6771,"Ġcreation":6772,"Ġthemes":6773,"Ġrepeat":6774,"Ġlungs":6775,"elve":6776,"ĠPr":6777,"Ġcontainer":6778,"isc":6779,"Ġdys":6780,"Ġbrief":6781,"uming":6782,"Ġcounterc":6783,"Ġpathways":6784,"====":6785,"ulum":6786,"Ġanatomy":6787,"Ġabilities":6788,"Ġvehic":6789,"Ġoptimization":6790,"Ġuncertain":6791,"Ġcampa":6792,")),":6793,"Ġladder":6794,"integ":6795,"Ġkm":6796,"Ġinterplay":6797,"Ġmanaging":6798,"Ġtrial":6799,"extt":6800,"delta":6801,"Ġquadrant":6802,"Ġnecessit":6803,"Ġmutations":6804,"enn":6805,"ĠBra":6806,"Ġarrow":6807,"Ġintegrating":6808,"ĠRemain":6809,"lockwise":6810,"ĠTypes":6811,"Ġduration":6812,"Ġbig":6813,"Ġcoinc":6814,"Ġspring":6815,"$$(":6816,"))/(":6817,"âĪŀ)":6818,"Ġfostering":6819,"ued":6820,"ucle":6821,"Ġsigned":6822,"Ġpassage":6823,"ĠVertical":6824,"07":6825,"Ġproving":6826,"Ġintercon":6827,"Ġgenerations":6828,"Ġchemists":6829,"arah":6830,"MzMzMzMzMzMzMzMzMzMzMzMzMzMzMzMzMzMzMzMzMzMzMzMzMzMzMzMzMzMzMzMz":6831,"Ġsensi":6832,"Ġserv":6833,"Ġlegal":6834,"Ġparabolas":6835,"Ġdivergence":6836,"Ġpolicymakers":6837,"epsilon":6838,"ares":6839,"esian":6840,"Ġprocessing":6841,"Ġattack":6842,"Ġpreventing":6843,"ĠPoints":6844,"Ġaccomplish":6845,"Ġnation":6846,"ete":6847,"Ġdeal":6848,"ĠMus":6849,"Ġhex":6850,"nected":6851,"Ġenhancing":6852,"that":6853,"Ġcolors":6854,"Ġindex":6855,"Ġhormon":6856,"Ġconditional":6857,"ĠPeriod":6858,"ĠCoordin":6859,"Ġprotons":6860,"Ġpreserve":6861,"Ġstretch":6862,"------------------":6863,"ĠProblems":6864,"ĠJap":6865,"Ġconsistently":6866,"Ġsymmetric":6867,"ouns":6868,"rosc":6869,"ĠSolution":6870,"Ġrotating":6871,"ĠArc":6872,"Ġdimension":6873,"âĭħ":6874,"}_{":6875,"Ġtub":6876,"Ġheld":6877,"Ġmedia":6878,"Ġlegis":6879,"Ġdisplays":6880,"Ġcylind":6881,"Ġremoving":6882,"Ġappearance":6883,"Ġstrategic":6884,"ĠOrigin":6885,"Ġprojects":6886,"Ġdots":6887,"oul":6888,"Ġstabil":6889,"ĠLap":6890,"Ġcars":6891,"(-\\":6892,"ĠÎµ":6893,"ĠâĪļ(":6894,"Precalculus":6895,"rals":6896,"Ġdomes":6897,"ĠSide":6898,"Ġmarks":6899,"Ġboxes":6900,"Ġdatasets":6901,"ĠNorth":6902,"cy":6903,"Ġ34":6904,"idespread":6905,"Ġterminal":6906,"ĠSimilarity":6907,"Ġ($\\":6908,"Ġsynthetic":6909,"Ġtherapy":6910,"Ġoverlap":6911,"new":6912,"then":6913,"Ġexcess":6914,"Ġaltitude":6915,"ĠEvaluate":6916,"Ġinnovation":6917,"ðĿ":6918,"rest":6919,"Ġintrig":6920,"ĠInput":6921,"Ġcountless":6922,"Ġtrust":6923,"âĪŀ,":6924,"Ġemployed":6925,"Ġwidespread":6926,"Ġemer":6927,"Ġrender":6928,"Ġhost":6929,"ĠTake":6930,"apor":6931,"Ġprisms":6932,"------------------------":6933,"Ġcycles":6934,"Inde":6935,"requ":6936,"Ġstic":6937,"Ġtransmission":6938,"ĠConstant":6939,"ĠScientific":6940,"Finding":6941,"Ġciv":6942,"Ġreached":6943,"ĠCle":6944,"Ġtook":6945,"Ġintuitive":6946,"Ġkilometers":6947,"alence":6948,"Ġcenters":6949,"Ġnearby":6950,"Ġcounterclockwise":6951,"PD":6952,"Ġ|-":6953,"Ġcollection":6954,"Ġmemory":6955,"$),":6956,"onst":6957,"Ġuns":6958,"angent":6959,"rench":6960,"While":6961,"ĠGermany":6962,"Subtracting":6963,"mn":6964,"vanced":6965,"Ġreport":6966,"Ġguide":6967,"Ġconfigurations":6968,"Ġfavorable":6969,"Ġquarter":6970,"ocytes":6971,"Ġencl":6972,"ĠFactors":6973,"Ġorbitals":6974,"Ġwaste":6975,"Ġequipped":6976,"Ġhyp":6977,"Ġmaximize":6978,"Ġrounded":6979,"Ġfacilitating":6980,"Ġattempting":6981,"uj":6982,"ĠAsia":6983,"ĠPositive":6984,"Ġraw":6985,"Ġsyn":6986,"ĠVisual":6987,"Ġingred":6988,"Ġtun":6989,"ird":6990,"Ġmodule":6991,"Ġdispar":6992,"Ġgreen":6993,"ĠIntegrals":6994,"Ġdollar":6995,"Ġinvestigate":6996,"Ġbillion":6997,"Ġexer":6998,"Ġintra":6999,"ĠFam":7000,"Ġadopt":7001,"ĠNational":7002,"Ġkeeping":7003,"Scenario":7004,"ĠMeasurement":7005,"Ġ...,":7006,"Ġexterior":7007,"Ġusage":7008,"Ġleaders":7009,"Ġmanipulations":7010,"Ġshorter":7011,"ĠAct":7012,"ĠSarah":7013,"125":7014,"Ġcommit":7015,"300":7016,"cancel":7017,"ocrine":7018,"peu":7019,"Ġdivisions":7020,"Ġdecreased":7021,"Ġellip":7022,"Ġmultivariable":7023,"ĠIntegrating":7024,"Ġenzymes":7025,"Ġapplicable":7026,"$).":7027,"Ġmoles":7028,"Ġturning":7029,"Ġstreng":7030,"226":7031,"Ġplanning":7032,"regular":7033,"Ġunders":7034,"Ġembark":7035,"Ġwal":7036,"igration":7037,"Ġplotted":7038,"Ġflows":7039,"ĠObserve":7040,"ception":7041,"Ġlaun":7042,"Ġabsorb":7043,"hs":7044,"Ġap":7045,"ĠAlex":7046,"ogene":7047,"overn":7048,"ĠÎ²":7049,"Ġrespond":7050,"Ġindustry":7051,"Ġarrays":7052,"Ġgradient":7053,"trbf":7054,"Ġwond":7055,"-------":7056,"ĠLong":7057,"Ġadvent":7058,"Ġgovernments":7059,"Ġvacc":7060,"Ġemerge":7061,"ĠAx":7062,"ĠPE":7063,"âĪļ(":7064,"Ġproficiency":7065,"Ġresonance":7066,"Ġpan":7067,"omega":7068,"Ġcomplications":7069,"ĠHorizontal":7070,"Ġtasks":7071,"PC":7072,"erb":7073,"Ġbrid":7074,"rown":7075,"ĠVariable":7076,"Ġproposed":7077,"Ġbusinesses":7078,"ĠRelationship":7079,".\\":7080,"96":7081,"zz":7082,"ula":7083,"ocolate":7084,"Ġran":7085,"Ġplate":7086,"ended":7087,"Ġportions":7088,"Ġprocedures":7089,"Ġneurons":7090,"Virginia":7091,"What":7092,"inds":7093,"let":7094,"apes":7095,"Ġtransmit":7096,"Ġrises":7097,"Ġpatient":7098,"ĠCounting":7099,"Ġhistogram":7100,"degree":7101,"Ġbur":7102,"ĠEle":7103,"Ġcalculator":7104,"rought":7105,"ĠUp":7106,"Ġperspectives":7107,"Ġcredit":7108,".âĢĿ":7109,"De":7110,"Ġyards":7111,"irical":7112,"Ġstories":7113,"ĠMove":7114,"Ġinterference":7115,"Ġobtuse":7116,"Ġauthority":7117,"||||||||||||||||":7118,"karyotic":7119,"xic":7120,"Ġ]":7121,"Ġpointing":7122,"aired":7123,"Ġparties":7124,"Ġconverted":7125,"Ġsocieties":7126,"ĠCircles":7127,"Right":7128,"under":7129,"Ġjoint":7130,"Ġinterventions":7131,"Ġrevealing":7132,"Ġelectronic":7133,"Expanding":7134,"ged":7135,"roid":7136,"Ġsubinter":7137,"Ġplas":7138,"Ġoverview":7139,"ĠÎ±":7140,"Ġappropriately":7141,"Ġreasonable":7142,"Ġwavelength":7143,"\\;\\;\\;\\;\\;\\;\\;\\;":7144,"Ġastron":7145,"Ġenzyme":7146,"Ġcontemporary":7147,"ont":7148,"rops":7149,"Ġ222":7150,"ria":7151,"licate":7152,"ĠGra":7153,"72":7154,"estern":7155,"Ġrelies":7156,"Ġpros":7157,"Ġasking":7158,"Ġdecline":7159,"ĠInequal":7160,"Ġweeks":7161,"Qu":7162,"Where":7163,"las":7164,"unt":7165,"Ġcoffee":7166,"arization":7167,"Ġtwelve":7168,"Ġbecoming":7169,"}\\,":7170,"Ġperformed":7171,"ĠCompound":7172,"Ġ(\\(":7173,"Ġtransportation":7174,"Ġsafety":7175,"ritish":7176,"Hy":7177,"Ġdigital":7178,"Ġpurposes":7179,"Ġnavigate":7180,"Ġregulatory":7181,"ĠProportional":7182,"ĠEncourage":7183,"fall":7184,"Ġmolar":7185,"Ġconqu":7186,"Ġanimal":7187,"utting":7188,"ograms":7189,"arable":7190,"Ġcontrolling":7191,"ĠSubtraction":7192,"Ġpolitics":7193,"ABC":7194,"Ġhypertension":7195,"76":7196,"cel":7197,"Ġpool":7198,"Ġ56":7199,"ĠForms":7200,"Ġ85":7201,")))":7202,"Ġagre":7203,"ĠUnion":7204,"Ġearned":7205,"Ġpurpose":7206,"Ġclues":7207,"38":7208,"Ġmaps":7209,"ostic":7210,"Ġreplication":7211,"Ġdescrip":7212,"Ġbackground":7213,"Ġmillions":7214,"Ġsubstantial":7215,"ĠBritish":7216,"tity":7217,"Ġmeter":7218,"Ġparallelograms":7219,"ĠType":7220,"Ġchromosomes":7221,"BS":7222,"vj":7223,"Ġaf":7224,"ĠTaking":7225,"Ġrespiration":7226,"Ġcompleted":7227,"Ġcardiac":7228,"Ġoxidation":7229,"Ġagriculture":7230,"Ġaggreg":7231,"BD":7232,"onsist":7233,"arness":7234,"Ġoccurred":7235,"Ġaffected":7236,"Ġhypothe":7237,"Ġpayments":7238,"color":7239,"Ġintriguing":7240,"Given":7241,"Ġpump":7242,"ords":7243,"Ġthor":7244,"Ġreally":7245,"psilon":7246,"ĠIntegration":7247,"iuj":7248,"ĠMan":7249,"ĠBot":7250,"cest":7251,"teen":7252,"avor":7253,"Ġgenetics":7254,"Ġartists":7255,")+\\":7256,"Ġfem":7257,"Ġdoc":7258,"Ġharness":7259,"Ġmoved":7260,"Ġrepl":7261,"Ġsomeone":7262,"Ġbounded":7263,"Ġcomputed":7264,"Ġdiscriminant":7265,"ĠBuilding":7266,"Taking":7267,"Ġsulf":7268,"stream":7269,"ĠEra":7270,"Ġdistributed":7271,"pected":7272,"Ġintricacies":7273,"Ġnucleoph":7274,"tious":7275,"Ġstars":7276,"ript":7277,"Ġdioxide":7278,"Ġdemanded":7279,"Ġbenefit":7280,"Remember":7281,"Ġgame":7282,"Ġ49":7283,")\\\\":7284,"Ġpricing":7285,"Ġscene":7286,"Ġspeech":7287,"cium":7288,"aq":7289,"wide":7290,"arp":7291,"elines":7292,"Ġrandomly":7293,"hour":7294,"ĠSouth":7295,"ĠUltimately":7296,"Ġelapsed":7297,"ripetal":7298,"ĠCongruence":7299,"bi":7300,"dh":7301,"lations":7302,"umin":7303,"illi":7304,"ĠDil":7305,"Ġorigins":7306,"Ġanalog":7307,"Ġfacing":7308,"Ġextract":7309,"Ġcomprehe":7310,"Divide":7311,"Ġstatus":7312,"ĠLogarith":7313,"Differen":7314,"Ġtor":7315,"ray":7316,"Ġalpha":7317,"Ġcards":7318,"Ġhandling":7319,"Ġspeeds":7320,"Ġsites":7321,"algebra":7322,"Ġfis":7323,"Ġvalence":7324,"neq":7325,"Ġproperly":7326,"Ġcalls":7327,"Ġinvestigation":7328,"ĠLaplace":7329,"Ġcogn":7330,"Ġcurvature":7331,"Ġfunctioning":7332,"Ġengagement":7333,"lessly":7334,"Ġmitig":7335,"Ġtraveling":7336,"Ġestablishing":7337,"Ġadvantages":7338,"Ġevolutionary":7339,"Ġsurplus":7340,"Ġexpenses":7341,"ĠBiology":7342,"ĠThree":7343,"ĠGen":7344,"Ġprograms":7345,"Ġvirt":7346,"Ġtherapeu":7347,"Ġhyperbola":7348,"Ġorbital":7349,"Ġcard":7350,"Ġbasket":7351,"veness":7352,"Ġextraneous":7353,"\\[\\":7354,"Ġalgorithms":7355,"Ġcapture":7356,"')":7357,"Ġclust":7358,"Ġfits":7359,"Ġchart":7360,"ominal":7361,"Ġshaped":7362,"Ġencoura":7363,"Ġquarters":7364,"ĠProduct":7365,"Plugging":7366,"uit":7367,"Ġrecover":7368,"preme":7369,"Ġrecalling":7370,"Ġfutures":7371,"ercise":7372,"Ġsoftware":7373,"Tra":7374,"aph":7375,"tro":7376,"Ġnone":7377,"omers":7378,"Ġplanet":7379,"Ġsupporting":7380,"Ġavailability":7381,"ĠIslam":7382,"Ġbirth":7383,"Volume":7384,"Ġsemic":7385,"ĠCalculating":7386,"Ġdecomposition":7387,"Ġinterconnected":7388,"Ġmyst":7389,"Ġvide":7390,"ĠFour":7391,"riers":7392,"geq":7393,"ĠGe":7394,"Ġunemp":7395,"Ġreality":7396,"Ġdemands":7397,"Ġtissues":7398,"rence":7399,"Ġbinding":7400,"Ġgoals":7401,"ĠSumm":7402,"Ġdimin":7403,"85":7404,"^+":7405,"Ġ\\,":7406,"Ġspot":7407,"ĠAncient":7408,"Ġthousandths":7409,"ĠCentral":7410,"Ġatmosphere":7411,"Ġdark":7412,"ĠCa":7413,"ĠPixar":7414,"ĠCompute":7415,"sub":7416,"Ġcompetitive":7417,"Ġprivate":7418,"EF":7419,"US":7420,"Ġpreferences":7421,"Ġcustomer":7422,"Ġrestrictions":7423,"Ġantiderivatives":7424,"Î»":7425,"etric":7426,"Ġshade":7427,"Ġconverge":7428,"Ġtruly":7429,"Ġtransitions":7430,"ĠDoing":7431,"ĠStarting":7432,"RNA":7433,"normal":7434,"ÌĦ":7435,"ĠSm":7436,"ĠIV":7437,"mental":7438,"Ġrelations":7439,"Ġremov":7440,"tism":7441,"jectile":7442,"Ġcupc":7443,"fare":7444,"Ġcovalent":7445,"Ġdecl":7446,"ĠVectors":7447,"Ġlearners":7448,"Ġvisualizing":7449,"Ġexceeds":7450,"Ġmortg":7451,"Warm":7452,"alse":7453,"Ġweather":7454,"omer":7455,"omic":7456,"Ġapproaching":7457,"Ġvelocities":7458,"Ġdilig":7459,"Ġautom":7460,"enp":7461,"orage":7462,"Ġancest":7463,"ĠBased":7464,"ested":7465,"space":7466,"Ġmodify":7467,"Ġballs":7468,"Ġordering":7469,"Ġstorytelling":7470,"More":7471,"bda":7472,"Ġgaps":7473,"Ġtechnologies":7474,"Ġevaluation":7475,"Ġbias":7476,"Ġaccounts":7477,"Ġbags":7478,"Ġrobust":7479,"Physics":7480,"Ġfibers":7481,"Ġinflammation":7482,"can":7483,"Ġcul":7484,"image":7485,"Ġsubtle":7486,"erson":7487,"Ġcompan":7488,"Ġgeneration":7489,"Ġskin":7490,"......":7491,"Ġpaths":7492,"Ġrespiratory":7493,"Ġchloride":7494,"Ġcandidates":7495,"Ġneutral":7496,"Ġwalk":7497,"Ġpiv":7498,"Ġsquaring":7499,"Ġexplan":7500,"Ġdesigns":7501,"ysts":7502,"228":7503,"Ġversati":7504,"Ġsite":7505,"Ġweigh":7506,"Ġchains":7507,"ĠPower":7508,"abetes":7509,").$$":7510,"ĠChoose":7511,"Ġinfluences":7512,"Ġpathway":7513,"Ġdivisible":7514,"Ġload":7515,"92":7516,"Co":7517,"ĠWidth":7518,"Ġformat":7519,"Ġtraject":7520,"Ġprev":7521,"Ġminor":7522,"Ġtypical":7523,"Ġclinical":7524,"LCM":7525,"check":7526,"edge":7527,"ĠMethod":7528,"Ġamino":7529,"ĠProperty":7530,"ĠParallel":7531,"Ġelasticity":7532,"Ġsurvival":7533,"Ġdisparate":7534,"avery":7535,"Ġyellow":7536,"omal":7537,"ĠLook":7538,"Ġcovers":7539,"Ġentities":7540,"ĠÂ·":7541,"SA":7542,"ker":7543,"no":7544,"licative":7545,"aker":7546,"ĠOpp":7547,"Ġcenturies":7548,"Ġmonetary":7549,"625":7550,"ĠHum":7551,"ĠStructure":7552,"Ġclasses":7553,"ergies":7554,"ĠĠĠĠĠĠĠĠĠ":7555,"Ġattrib":7556,"Ġslavery":7557,"board":7558,"}}$":7559,"Ġinvestments":7560,"ĠEarly":7561,"Ġflipping":7562,"Ġcities":7563,"Ġple":7564,"Ġcoins":7565,"ĠMid":7566,"arizing":7567,"Ġimposed":7568,"ĠChris":7569,"halpy":7570,"Ġthres":7571,"Ġstop":7572,"antly":7573,"Ġunless":7574,"Ġimproved":7575,"Ġmagnitudes":7576,"Ġarrangements":7577,"Ġmonthly":7578,"ĠPresident":7579,"Ġbul":7580,"ĠRot":7581,"ĠÎ´":7582,"sych":7583,"43":7584,"400":7585,"max":7586,"rd":7587,"uli":7588,"Ġchord":7589,"ĠFrench":7590,"ĠEconom":7591,"Ġarr":7592,"Ġtermin":7593,"Ġeconomies":7594,"Ġbalanced":7595,"economic":7596,"Ġmotors":7597,"med":7598,"leep":7599,"sius":7600,"Ġxy":7601,"ogonal":7602,"Ġarguments":7603,"ĠðĿ":7604,"heres":7605,"Ġ33":7606,"Ġpartition":7607,"Ġbehave":7608,"Ġplayer":7609,"Ġfacts":7610,"Ġprogression":7611,"Ġscatterpl":7612,"Ġche":7613,"Ġ227":7614,"ologic":7615,"opy":7616,"Ġexclusive":7617,"urance":7618,"aled":7619,"amine":7620,"Ġartis":7621,"Ġfeas":7622,"opulation":7623,"related":7624,"Ġlatter":7625,"Ġincre":7626,"phant":7627,"oglob":7628,"Ġshifted":7629,"lambda":7630,"ographic":7631,"ĠCreating":7632,"ĠAlternatively":7633,"ĊĠĠĠĠ":7634,"Ġbit":7635,"Ġasset":7636,"osa":7637,"Ġgallon":7638,"ĠConnecting":7639,"81":7640,"Ġtape":7641,"Ġdissol":7642,"volving":7643,")(-":7644,"Ġbanking":7645,"ĠIII":7646,"Ġparticipants":7647,"Ġmessage":7648,",âĢĿ":7649,"Number":7650,"iosis":7651,"made":7652,"inking":7653,"ĠFin":7654,"Ġpermut":7655,"Ġcurved":7656,"Ġlinearly":7657,"Ġadjustments":7658,"Ġrendering":7659,"inning":7660,"itoring":7661,"Ġintercept":7662,"Ġsecurities":7663,"Ġurban":7664,"Ġlymph":7665,"Ġdomestic":7666,"ops":7667,"rad":7668,"cending":7669,"ĠIr":7670,"Ġfrag":7671,"ĠRepe":7672,"Ġbisector":7673,"Ġrearrange":7674,"SkrKysrK":7675,"MDAS":7676,"integer":7677,"47":7678,"Ġtight":7679,"erves":7680,"erion":7681,"Ġinconsist":7682,"Ġago":7683,"Ġbattery":7684,"Ġdrop":7685,"ĠEF":7686,"osites":7687,"Ġformer":7688,"Ġcommer":7689,"Ġcreativity":7690,"Ġgenerates":7691,"urning":7692,"ĠVisually":7693,"Ġunemployment":7694,"]]":7695,"ls":7696,"letal":7697,"atural":7698,"Ġdict":7699,"Ġgather":7700,"Ġstem":7701,"ĠCel":7702,"Ġ\\]":7703,"Ġperhaps":7704,"Ġoutlier":7705,"Ġbuff":7706,"Ġempirical":7707,"Ġreleased":7708,"Ġcollision":7709,"ĠTrigonometry":7710,"SkrKysrKSkrKysrK":7711,"fit":7712,"two":7713,"Ġequip":7714,"Ġadds":7715,"Pl":7716,"based":7717,"ij":7718,"Ġcame":7719,"eding":7720,"Ġcool":7721,"ĠSen":7722,"ĠSqu":7723,"ĠCart":7724,"ructive":7725,"Ġconstitution":7726,"Ġpregn":7727,"Ġpotentials":7728,"ganic":7729,"Ġrising":7730,"ucl":7731,"Ġguidelines":7732,".\\)":7733,"ĠTable":7734,"ermost":7735,"Ġelementary":7736,"Ġattacks":7737,"Ġbrings":7738,"Ġcounterparts":7739,"Ġhair":7740,"imilarities":7741,"ĠÎ»":7742,"Ġpizzas":7743,"Ġlandscape":7744,"`,":7745,"Ġstar":7746,"Ġtensions":7747,"Ġmodifications":7748,"41":7749,"68":7750,"Ġhelping":7751,"Ġhelped":7752,"Ġtreating":7753,"Ġpurs":7754,"Ġirregular":7755,"Ġcollected":7756,"Ġbisect":7757,"Ġneighboring":7758,"63":7759,"Side":7760,"Ġwarm":7761,"orn":7762,"Ġthreat":7763,"Ġsharp":7764,"Ġmeets":7765,"Ġcomputation":7766,"Ġargue":7767,"Ġhighlighting":7768,"Ġconvenient":7769,"example":7770,"Ġproves":7771,"Ġ39":7772,"Ġdetermination":7773,"ximum":7774,"Ġorganization":7775,"Ġclassify":7776,"Ġdeviations":7777,"Ġstrictly":7778,"Ġmanufacturing":7779,"Ġhousing":7780,"leg":7781,"ĠCreate":7782,"ĠCoordinate":7783,"comp":7784,"ticip":7785,"Ġstere":7786,"Ġshr":7787,"Ġopin":7788,"Ġ[(":7789,"Ġ[[":7790,"Ġparabolic":7791,"Ġexpectations":7792,"Ġfifth":7793,"Ġrhomb":7794,"Ġtherapeutic":7795,"olism":7796,"ams":7797,"Ġagents":7798,"Ġquadrants":7799,"Ġguess":7800,"ĠRatio":7801,"Ġpollution":7802,"Ġenclosed":7803,"Ġegg":7804,"ldots":7805,"Ġunity":7806,"Ġabund":7807,"}}$$":7808,"Ġnearly":7809,"Ġoptimize":7810,"sibility":7811,"ĠSubstitution":7812,"Ġsomew":7813,"Ġmer":7814,"Ġrare":7815,"Ġdecades":7816,"Ġgraphics":7817,"ubility":7818,"ositions":7819,"pmatrix":7820,"gEgEgEgE":7821,"Ġcirculation":7822,"Ġcamera":7823,"Ġstrengthen":7824,"rint":7825,"ford":7826,"Ġwherein":7827,"Ġreinforce":7828,"ĠCelsius":7829,"cles":7830,"ĠSimp":7831,"rome":7832,"ĠInfinite":7833,"Ġinterests":7834,"Ġrecognition":7835,"Ġwidely":7836,"Ġfilling":7837,"Biology":7838,"Ġeu":7839,"Ġrid":7840,"Ġspi":7841,"Ġkid":7842,"Ġletter":7843,"Ġletters":7844,"Ġscope":7845,"asts":7846,"ĠWithout":7847,"Addition":7848,"Ġinvas":7849,"Ġnutrients":7850,"Ġhormones":7851,"esis":7852,"Ġbone":7853,"ocardi":7854,"ĠDep":7855,"Ġquantum":7856,"Ġthermal":7857,"Ġreproductive":7858,"Evalu":7859,"Ġsimilarities":7860,"Ġbinary":7861,"Ġ${":7862,"Ġadvoc":7863,"Ġju":7864,"ĠContinu":7865,"Ġmonopol":7866,"ĠAlgebraic":7867,"ĠCongratulations":7868,"Ġlaid":7869,"ĠCartesian":7870,"draw":7871,"gy":7872,"gans":7873,"lysis":7874,"ĠTreat":7875,"Ġsolar":7876,"Ġrightmost":7877,"Ġmajority":7878,"ĠSupreme":7879,"NO":7880,"ĠArt":7881,"Ġfeat":7882,"Ġplanes":7883,"Ġreceived":7884,"ĠDecomposing":7885,"Ġdistinguish":7886,"Ġsavings":7887,"oglobin":7888,"mers":7889,"vL":7890,"Ġpin":7891,"ritain":7892,"Ġstorage":7893,"ĠWell":7894,"rily":7895,"ĠRectangle":7896,"Ġdiscrep":7897,"Ġ189":7898,"Ġessentially":7899,"Ġpromin":7900,"Ġadjusting":7901,"Ġstretching":7902,"uitive":7903,"ĠTogether":7904,"ĠSw":7905,"ĠItal":7906,"Ġsoil":7907,"tains":7908,"ĠInterest":7909,"ĠFrance":7910,"Ġalternating":7911,"Ġmidpoints":7912,"Ġcommunicate":7913,"rins":7914,"eting":7915,"Ġcalcium":7916,"ĠFirstly":7917,"Ġtangents":7918,"Ġtendency":7919,"Ġaccompan":7920,"Ġspanning":7921,"08":7922,"Ġswe":7923,"ĠLines":7924,"Ġcontributed":7925,"Ġcultures":7926,"Ġbroken":7927,"Ġfails":7928,"ĠBanking":7929,"Two":7930,"Ġprojectile":7931,"iral":7932,"dehy":7933,"Rearrang":7934,"Ġplasma":7935,"bling":7936,"Ġcere":7937,"Ġinj":7938,"asons":7939,"Ġstroke":7940,"Ġruler":7941,"Ġrace":7942,"athy":7943,"Ġgeometrical":7944,"Ġresemble":7945,")+(":7946,"dden":7947,"Ġdivergent":7948,"Ġconstitu":7949,"Ġneurotrans":7950,"Ġsketch":7951,"Ġelegant":7952,"Ġhypothetical":7953,"PR":7954,"Ġsigma":7955,"Ġpit":7956,"Ġmasses":7957,"Ġharm":7958,"Ġvo":7959,"Ġenergies":7960,"ĠRome":7961,"direct":7962,"Ġofficial":7963,"Ġopposing":7964,")=(":7965,"avy":7966,"ĠÏĢr":7967,"Ġframes":7968,"ĠDifferentiation":7969,"Ġcandidate":7970,"cers":7971,"lin":7972,"ows":7973,"Ġlat":7974,"Ġgly":7975,"Ġchronic":7976,"fully":7977,"Ġsystematic":7978,"Ġdominant":7979,"Case":7980,"Ġlost":7981,"Ġvict":7982,"Ġsudden":7983,"Ġverbal":7984,"Ġdiabetes":7985,"Ġcapacitor":7986,"Ġstudied":7987,"Ġdiscovery":7988,"Ġrevis":7989,"Ġnic":7990,"ĠAM":7991,"ĠQuadrant":7992,"ĠRepresenting":7993,"ĠClearly":7994,"Sh":7995,"Ġbars":7996,"Ġpoor":7997,"ĠProject":7998,"Ġpassed":7999,"Ġarbitrarily":8000,"Ġemotional":8001,"04":8002,"zy":8003,"})\\":8004,"Ġdra":8005,"brace":8006,"Ġpaid":8007,"Ġ(-âĪŀ,":8008,"Ġpayment":8009,"Ġindustries":8010,"Ġinherit":8011,"Ob":8012,"ger":8013,"Ġaid":8014,"ĠTher":8015,"ĠSupp":8016,"ĠBritain":8017,"ĠWorking":8018,"Ġcarbonyl":8019,"Ġpossibility":8020,"Ġborrowing":8021,"rinsic":8022,"-,":8023,"ira":8024,"|,":8025,"Ġorgans":8026,"Ġ52":8027,"apse":8028,"ensation":8029,"Ġcollective":8030,"hyd":8031,"ceptions":8032,"Ġdrugs":8033,"Ġsurvey":8034,"Ġaggregate":8035,"Ġwage":8036,"ulates":8037,"ĠDue":8038,"Ġsimplicity":8039,"ĠGovern":8040,"Ġnamed":8041,"Ġdoors":8042,"Ġoperating":8043,"lectively":8044,"fortunately":8045,"Ġregularly":8046,"Ġconvention":8047,"Ġsentences":8048,"Ġgalax":8049,"ĠBlood":8050,"OTk":8051,"Ġpyramid":8052,"Ġuncertainty":8053,"Ġthorough":8054,"......#":8055,"phantom":8056,"Ġbrought":8057,"activity":8058,"Ġdisrupt":8059,"Ġdifferentiate":8060,"requency":8061,"ogeneous":8062,"cap":8063,"ients":8064,"Ġcopy":8065,"Ġ$(-":8066,"Ġdevelopments":8067,"ostasis":8068,"qysrKSkrqysrKSkrqysrKSkrqysrKSkr":8069,"SkpKSkr":8070,"root":8071,"ĠMay":8072,"illing":8073,"Ġlogic":8074,"Ġillustrates":8075,"Ġbreath":8076,"Ġviole":8077,"Exercise":8078,"Ġcollabor":8079,"Ġ:=":8080,"Ġselected":8081,"Ġdecompose":8082,"ĠAfrica":8083,"?\".":8084,"NH":8085,"ĠSket":8086,"Ġbeta":8087,"Ġradian":8088,"Ġhappen":8089,"Ġimproving":8090,"Ġchecks":8091,"Ġcyclo":8092,"Ġreactants":8093,"Ġfloor":8094,"Ġexerted":8095,"Â±":8096,"inator":8097,"room":8098,"Ġtranscription":8099,"Ġremained":8100,"Ġfocused":8101,"Ġmaxima":8102,"Ġinvertible":8103,"bx":8104,"bound":8105,"cts":8106,"Ġartif":8107,"Ġsolvent":8108,"Ġverb":8109,"Ġworldwide":8110,"Ġ\\\\[":8111,"ĠPerimeter":8112,"Ġweights":8113,"Ġbeliefs":8114,"Ġcivics":8115,"TC":8116,"ey":8117,"ocation":8118,"Ġinstrum":8119,"Ġconfirming":8120,"Ġresistors":8121,"ĠSurface":8122,"Rightarrow":8123,"Ġartistic":8124,"Fin":8125,"intuitive":8126,"Ġchanged":8127,"Ġpresident":8128,"Ġmonitoring":8129,"Ġanalytical":8130,"Hence":8131,"Ġrac":8132,"Ġpace":8133,"amber":8134,"ĠEucl":8135,"Ġâħ":8136,"Ġstanding":8137,"Ġpropag":8138,"Ġfeasible":8139,"name":8140,"|^":8141,"ĊĠĠĠĠĠ":8142,"Ġsac":8143,"Ġpick":8144,"ortic":8145,"Ġmel":8146,"Ġcot":8147,"Ġforget":8148,"ommod":8149,"Ġmetals":8150,"Ġopposites":8151,"ĠWithin":8152,"Ġenthalpy":8153,"Ġminimizing":8154,"Ġflowing":8155,"Ġgroundwork":8156,"Ġsustainable":8157,"Ġsteady":8158,")}{\\":8159,"eds":8160,"ĠTe":8161,"Ġvul":8162,"Ġcomprom":8163,"Ġlongest":8164,"120":8165,"Ġblack":8166,"Ġcommut":8167,"Ġmodified":8168,"PE":8169,"Qz":8170,"style":8171,"Ġexac":8172,"defined":8173,"Ġreadily":8174,"Ġsalt":8175,"ĠAfrican":8176,"55":8177,"dv":8178,"Ġocean":8179,"Ġdv":8180,"Ġwhis":8181,"ĠBefore":8182,"ĠDon":8183,"Ġunlock":8184,"Ġassumes":8185,"Ġdiagnostic":8186,"ĠTesting":8187,"AAAAAAAAAAAAAAAAAAAAAAAAAAAAAAAAAAAAAAAAAAAAAAAAAAAAAAAAAAAAAAAAAAAAAAAAAAAAAAAAAAAAAAAAAAAAAAAAAAAAAAAAAAAAAAAAAAAAAAAAAAAAAAAA":8188,"Interpreting":8189,"Ġflexibility":8190,"Ġtuned":8191},"merges":[["Ġ","t"],["i","n"],["Ġ","a"],["h","e"],["o","n"],["r","e"],["Ġt","he"],["t","i"],["e","r"],["Ġ","c"],["Ġ","s"],["in","g"],["Ġ","o"],["l","e"],["i","t"],["a","l"],["n","d"],["Ġ","w"],["ti","on"],["e","s"],["Ġ","in"],["Ġ","p"],["e","n"],["a","t"],["o","r"],["Ġ","f"],["i","s"],["Ġo","f"],["Ġ","d"],["Ġ","e"],["Ġa","nd"],["o","u"],["r","a"],["Ġ","b"],["Ġt","o"],["Ġ","m"],["r","o"],["i","c"],["a","r"],["a","n"],["v","e"],["Ġ","n"],["e","d"],["Ġt","h"],["m","p"],["l","y"],["Ġ","re"],["a","tion"],["en","t"],["s","t"],["Ġ","h"],["s","e"],["c","t"],["Ġ","u"],["o","w"],["q","u"],["e","t"],["c","e"],["Ġe","x"],["Ġ","l"],["u","l"],["o","l"],["Ġc","on"],["c","tion"],["Ġ","on"],["Ġc","o"],["Ġ","-"],["i","d"],["o","t"],["i","g"],["Ġ","y"],["Ġ","is"],["Ġin","t"],["v","er"],["Ġ","\""],["-","-"],["i","f"],["Ġ","g"],["Ġw","e"],["it","h"],["Ġf","or"],["Ġp","ro"],["e","c"],["Ġa","n"],["u","m"],["u","r"],["o","m"],["Ġ","A"],["Ġ","="],["Ġ","T"],["Ġw","ith"],["a","s"],["mp","le"],["Ġ","("],["c","h"],["p","t"],["i","m"],["i","l"],["re","s"],["Ġc","h"],["Ġ","v"],["r","it"],["Ġy","ou"],["Ġth","at"],["at","e"],["Ġ","1"],["Ġ","le"],["Ġt","e"],["a","d"],["Ġs","u"],["i","r"],["n","it"],["Ġa","l"],["ation","s"],["ti","c"],["Ġb","e"],["p","p"],["Ġ","S"],["l","u"],["Ġe","qu"],["a","mple"],["d","e"],["\"",","],["Ġ","it"],["he","r"],["a","g"],["b","le"],["u","t"],["n","t"],["Ġa","s"],["Ġin","c"],["s","i"],["Ġo","r"],["Ġs","t"],["ti","ve"],["i","v"],["d","u"],["Ġd","e"],["u","s"],["o","o"],["Ġex","ample"],["Ġh","a"],["Ġ","F"],["x","t"],["Ġw","h"],["Ġ","2"],["in","e"],["Ġp","o"],["k","e"],["n","g"],["b","er"],["Ġ","I"],["a","ch"],["Ġth","is"],["Ġa","re"],["is","t"],["o","re"],["Ġb","y"],["Ġ","C"],["Ġex","p"],["ent","s"],["Ġha","ve"],["Ġn","um"],["Ġ","+"],["ra","c"],["oo","k"],["Ġ","W"],["Ġw","rit"],["Ġinc","lu"],["e","g"],["Ġsu","b"],["u","re"],["r","i"],["a","m"],["Ġ","M"],["r","u"],["Ġch","a"],["ou","t"],["e","l"],["at","es"],["Ġc","an"],["Ġu","s"],["Ġnum","ber"],["Ġinclu","de"],["--","--"],["Ġte","xt"],["ig","h"],["'","s"],["u","n"],["a","in"],["re","d"],["Ġ","Ġ"],["b","ook"],["Ġ","$"],["Ġtext","book"],["e","ct"],["Ġ","E"],["Ġ","L"],["pt","er"],["Ġcha","pter"],["Ġ","en"],["Ġa","d"],["o","c"],["on","s"],["e","w"],["al","u"],["Ġ","\\"],["Ġ","R"],["l","ow"],["i","al"],["it","y"],["le","d"],["Ġw","he"],["a","y"],["ct","or"],["p","ic"],["ou","s"],["igh","t"],["Ġ","x"],["i","mp"],["m","s"],["\"","."],["le","s"],["in","t"],["t","h"],["Ġ","he"],["ro","du"],["ction","s"],["Ġ","3"],["Ġ","if"],["Ġa","t"],["Ġcon","t"],["a","nd"],["ĠT","he"],["an","g"],["Ġ","B"],["c","ul"],["p","e"],["Ġa","r"],["Ġf","un"],["ic","h"],["ro","m"],["tic","al"],["Ġ","r"],["an","t"],["Ġ","P"],["o","s"],["il","l"],["Ġv","alu"],["Ġa","pp"],["a","ble"],["Ġwrit","ing"],["ar","i"],["e","re"],["Ġint","rodu"],["d","ing"],["l","i"],["Ġs","e"],["er","s"],["Ġc","al"],["a","c"],["Ġequ","ations"],["Ġm","at"],["on","g"],["es","s"],["ou","r"],["Ġs","p"],["rit","e"],["s","s"],["r","y"],["U","nit"],["Ġwith","out"],["Ġto","pic"],["ach","ing"],["id","e"],["ag","ing"],["ul","ti"],["Ġ","|"],["Ġn","ot"],["Ġf","rom"],["Ġt","it"],["Ġs","h"],["Ġe","v"],["l","d"],["al","ly"],["Ġte","aching"],["Ġtextbook","s"],["ce","pt"],["0","0"],["Ġ","ra"],["Ġm","o"],["Ġco","mp"],["t","her"],["d","i"],["e","m"],["r","ou"],["Ġre","s"],["Ġu","nit"],["Ġ","D"],["Ġ","H"],["Ġcal","cul"],["Ġl","i"],["en","ti"],["Ġt","w"],["Ġd","et"],["e","p"],["ulti","p"],["nd","er"],["i","z"],["if","ic"],["Ġint","eg"],["Ġs","ol"],["Ġ","ver"],["a","tive"],["ĠT","h"],["l","o"],["Ġthe","se"],["Ġa","c"],["n","s"],["Ġint","o"],["ad","y"],["Ġf","in"],["Ġpo","int"],["W","e"],["Ġfor","m"],["Ġm","e"],["t","er"],["Ġl","ine"],["ol","low"],["Ġp","l"],["Ġo","ur"],["}","{"],["a","re"],["Ġtw","o"],["Ġ","4"],["Ġw","ill"],["g","h"],["Ġf","ollow"],["d","s"],["Ġre","p"],["om","e"],["i","p"],["in","es"],["al","s"],["ir","st"],["r","ic"],["f","rac"],["v","ing"],["Ġa","b"],["p","er"],["Ġh","ow"],["Ġ","N"],["Ġf","a"],["u","tion"],["p","h"],["l","ic"],["or","y"],["ve","red"],["ra","tion"],["Ġ","0"],["g","e"],["Ġin","st"],["Ġw","or"],["Ġp","er"],["si","on"],["ar","t"],["re","ady"],["Ġal","ready"],["Ġco","vered"],["al","le"],["Ġ","k"],["Ġ","qu"],["i","le"],["Ġyou","r"],["Ġu","nder"],["Ġb","et"],["Ġco","m"],["Ġv","ari"],["f","or"],["an","ce"],["Ġon","e"],["er","m"],["Ġthe","ir"],["al","l"],["Ġcon","cept"],["f","ere"],["on","e"],["Ġf","ra"],["ti","es"],["ĠS","t"],["â","Ģ"],["Ġli","ke"],["Ġp","rac"],["m","ent"],["at","ing"],["ot","her"],["Ġ","5"],["Ġcon","s"],["Ġexp","res"],["Ġle","ss"],["j","ect"],["Ġc","ur"],["Ġp","h"],["Ġsp","ec"],["er","ing"],["Ġrep","res"],["ot","h"],["s","es"],["Ġs","imp"],["Ġd","ec"],["at","ed"],["o","g"],["Ġle","t"],["i","es"],["w","e"],[")",","],["ou","nd"],["v","es"],["a","b"],["Ġnumber","s"],["Ġg","ra"],["Ġc","re"],["Ġm","ultip"],["Ġn","e"],["Ġd","if"],["Ġre","l"],["Ġd","i"],["Ġu","se"],["Ġvalu","e"],["Ġit","s"],["Ġs","y"],["Ġfun","ction"],["we","en"],["ĠF","or"],["a","se"],["\\","_"],["a","k"],["Ġbet","ween"],["Ġexample","s"],["Ġt","ra"],["Ġint","er"],["Ġwhe","n"],[")","."],["Ġe","ach"],["u","nit"],["Ġan","other"],["ul","t"],["Ġb","oth"],["se","l"],["ĠI","n"],["ic","e"],["Ġwh","ich"],["ou","ld"],["Ġpro","ble"],["f","f"],["Ġof","f"],["Ġ","ro"],["oc","us"],["----","----"],["Ġd","iv"],["Ġad","v"],["st","and"],["Ġwh","ile"],["c","es"],["o","f"],["Ġequ","ation"],["Ġn","ew"],["Ġf","irst"],["ig","n"],["A","A"],["Ġ","ke"],["Ġ","O"],["Ġen","g"],["rou","gh"],["p","on"],["li","ed"],["Ġh","ist"],["alle","ng"],["Ġl","ong"],["Ġus","ing"],["ĠTh","is"],["ĠA","pp"],["ar","y"],["Ġch","alleng"],["t","e"],["Ġdif","fere"],["Ġspec","ific"],["Ġt","ry"],[".","."],["er","ial"],["Ġ","6"],["for","m"],["Ġ","Unit"],["sel","f"],["Ġd","is"],["Ġfa","ctor"],["Ġan","g"],["n","ow"],["ĠT","o"],["Ġar","c"],["Ġintrodu","ction"],["in","ce"],["Ġ","imp"],["Ġwhe","re"],["Ġs","c"],["a","ce"],["ar","ra"],["v","ol"],["a","i"],["di","tion"],["Ġcalcul","us"],["Ġfun","ctions"],["Ġmat","erial"],["Ġ","G"],["Ġc","our"],["Ġo","ut"],["en","ce"],["Ġhist","ory"],["Ġn","am"],["Ġev","ents"],["es","t"],["re","nt"],["Ġfollow","ing"],["Ġit","self"],["ru","ction"],["Ġu","n"],["Ġcont","ent"],["Ġpro","of"],["Ġinteg","ration"],["ĠĠ","ĠĠ"],["Ġd","ist"],["Ġsu","ch"],["'","re"],["u","st"],["o","se"],["Ġcre","ate"],["f","in"],["ig","or"],["Ġcour","se"],["ĠSt","ates"],["Ġco","ver"],["l","ines"],["ĠUnit","ed"],["Ġwrit","e"],["Ġhe","ad"],["Ġt","im"],["Ġo","b"],["igor","ous"],["Ġke","y"],["Ġunder","stand"],["l","l"],["ĠA","s"],["Ġg","iv"],["ag","e"],["Ġsimp","ly"],["t","ra"],["ĠE","ng"],["v","i"],["ly","ing"],["at","or"],["Ġm","ore"],["ou","nt"],["Ġsub","ject"],["Ġprac","tical"],["or","t"],["Ġco","mple"],["Ġn","arra"],["Ġph","ra"],["$","$"],["Ġchalleng","ing"],["Ġproof","s"],["ai","led"],["pt","h"],["f","ore"],["Ġp","ure"],["ew","is"],["Ġt","one"],["Ġde","pth"],["Ġeng","aging"],["ĠW","rite"],["ctor","y"],["ĠL","ewis"],["â","Ī"],["Ġver","y"],["Ġphra","ses"],["Ġtit","le"],["Ġn","ow"],["Ġnarra","tive"],["Ġdet","ailed"],["Ġoff","ering"],["id","er"],["Ġtry","ing"],["Ġnam","es"],["a","el"],["D","o"],["ich","ael"],["W","rite"],["ĠM","ichael"],["ti","m"],["ĠF","ocus"],["Ġinst","ruction"],["Ġd","ates"],["Ġadv","ice"],["ĠApp","lied"],["Ġintrodu","ctory"],["Ġpure","ly"],["Ġtit","led"],["Ġhead","lines"],["ĠEng","aging"],["ĠR","igorous"],["Ġcur","rent"],["Ġth","rough"],["Ġb","ec"],["Ġo","ther"],["Ġthe","re"],["Ġin","vol"],["Ġd","o"],["Ġthe","y"],["Ġk","now"],["a","p"],["re","e"],["m","on"],["i","on"],["ri","b"],["Ġpro","du"],["Ġres","ult"],["Ġfin","d"],["e","ver"],["a","ti"],["Ġsy","st"],["it","e"],["Ġd","en"],["id","es"],["Ġs","ome"],["he","m"],["si","ons"],["ti","t"],["Ġ","&"],["Ġrepres","ent"],["Ġ","/"],["Ġo","ver"],["Ġm","a"],["Ġ","7"],["Ġal","l"],["ar","d"],["Ġs","o"],["Ġm","an"],["enti","al"],["om","et"],["Ġp","ar"],["Ġc","or"],["Ġs","qu"],["Ġgra","ph"],["Ġh","as"],["n","e"],["ic","al"],["ul","ar"],["Ġvalu","es"],["n","ce"],["t","ain"],["le","ct"],["f","t"],["eg","ative"],["Ġtim","e"],["ti","ce"],["u","res"],["t","ing"],["Ġme","an"],["Ġan","y"],["Ġth","an"],["Ġb","as"],["ac","k"],["Ġre","m"],["Ġpo","si"],["Ġcon","st"],["Ġp","re"],["Ġdec","im"],["u","d"],["Ġfra","ctions"],[")","^"],["Ġthe","m"],["Ġtra","ns"],["a","le"],["Ġ","U"],["Ġac","c"],["Ġ","8"],["Ġ","z"],["Ġch","ang"],["Ġvari","able"],["Ġequ","al"],["Ġ1","0"],["ut","e"],["he","n"],["Ġapp","ro"],["Ġme","as"],["b","ra"],["u","e"],["Ġne","ed"],["on","d"],["om","ial"],["h","ip"],["Ġwith","in"],["Ġexp","l"],["u","al"],["Ġu","p"],["Ġt","ri"],["u","b"],["Ġless","ons"],["Ġcomple","x"],["ang","le"],["Ġs","um"],["ir","c"],["I","n"],["Ġthe","n"],["Ġab","out"],["ng","th"],["il","ity"],["pe","nd"],["Ġproble","ms"],["Ġp","a"],["am","e"],["t","en"],["o","d"],["Ġ","9"],["Ġn","egative"],["t","al"],["N","ow"],["Ġcons","ider"],["ĠW","e"],["ĠB","y"],["ur","ing"],["ĠI","nt"],["Ġwor","k"],["Ġre","g"],["s","ing"],["at","er"],["c","ess"],["Ġwh","o"],["Ġsol","ution"],["Ġre","al"],["ations","hip"],["Ġunderstand","ing"],["Ġgiv","en"],["ĠH","ow"],["tion","al"],["Ġdet","erm"],["s","o"],["y","s"],["T","he"],["om","in"],["Ġre","c"],["i","ties"],["a","ct"],["Ġpoint","s"],["it","s"],["Ġrel","ationship"],["Ġform","ul"],["Ġpro","per"],["Ġcon","c"],["Ġ","*"],["Ġle","ngth"],["Ġin","d"],["f","ul"],["a","u"],["or","d"],["Ġal","low"],["Ġm","et"],["ak","ing"],["Ġr","ight"],["Ġb","ut"],["Ġp","r"],["Ġ","j"],["lic","ation"],["ow","er"],["Ġt","er"],["ve","l"],["Ġal","so"],["re","as"],["el","l"],["Ġd","es"],["he","s"],["m","ents"],["ec","h"],["Ġs","ign"],["ic","i"],["Ġn","o"],["ti","al"],["tion","s"],["Ġsub","tra"],["Ġare","a"],["Ġwh","at"],["Ġs","ame"],["er","o"],["Ġl","im"],["Ġde","fin"],["ge","bra"],["Ġ","ru"],["i","el"],["hem","a"],["Ġc","irc"],["ig","in"],["ay","s"],["Ġin","s"],["T","o"],["at","h"],["Ġexp","on"],["Ġg","en"],["a","st"],["Ġs","ides"],["Ġfra","ction"],["Ġsqu","are"],["Ġa","m"],["if","y"],["lo","pe"],["omin","ator"],["e","ms"],["ar","n"],["Ġst","ud"],["Ġp","res"],["x","im"],["}","\\"],["Ġter","ms"],["Ġs","et"],["ol","um"],["d","er"],["Ġline","ar"],["Ġcom","mon"],["Ġ\\","*"],["Ġc","l"],["Ġt","y"],["is","e"],["Ġd","er"],["Ġang","le"],["L","et"],["p","ec"],["ro","w"],["Ġden","ominator"],["Ġs","er"],["Ġor","igin"],["Ġexpres","sions"],["tic","s"],["ar","g"],["r","t"],["Ġrepres","ents"],["Ġsyst","em"],["Ġ","id"],["Ġp","art"],["Ġg","et"],["Ġm","ay"],["res","pon"],["o","ver"],["Ġpro","v"],["ow","n"],["ĠA","d"],["ate","ly"],["Ġdiffere","nt"],["Ġformul","a"],["e","xt"],["Ġs","ec"],["Ġf","e"],["Ġw","ould"],["r","ate"],["Ġd","at"],["$","."],["v","r"],["p","s"],["enti","f"],["Ġcor","respon"],["en","s"],["ĠHow","ever"],["Ġproble","m"],["ru","ct"],["q","rt"],["Ġexpres","sion"],["Ġ","âĢ"],["AA","AA"],["Ġunit","s"],["Ġpo","ly"],["x","ample"],["Ġvari","ous"],["im","il"],["u","nd"],["{","\\"],["id","ing"],["Ġdis","c"],["Ġth","ree"],["Ġ","V"],["Ġless","on"],["Ġconst","ant"],["p","or"],["Ġrem","ain"],["1","0"],["ar","k"],["au","se"],["c","ed"],["Ġs","m"],["ff","ici"],["Ġs","ide"],["Ġs","ince"],["Ġ$","\\"],["as","s"],["Ġposi","tive"],["Ġpro","cess"],["e","qu"],["Ġdi","re"],["imil","ar"],["iz","e"],["Ġmat","hema"],["ad","ra"],["ve","d"],["ab","ility"],["i","qu"],["is","ion"],["Ġre","f"],["re","fore"],["_","_"],["ĠC","on"],["e","omet"],["a","x"],["Ġmeas","ure"],["ro","ss"],["n","omial"],["Ġre","qu"],["Ġwho","le"],["T","h"],["o","mp"],["Ġs","lope"],["Ġt","erm"],["Ġpl","ace"],["ur","ther"],["Ġcon","ver"],["m","e"],["Ġprodu","ct"],["Ġan","al"],["om","es"],["de","l"],["Ġm","in"],["Ġinvol","ving"],["Ġ","Ã"],["Ġz","ero"],["Ġexpl","ore"],["t","y"],["ol","og"],["Ġst","art"],["Ġang","les"],["Ġad","dition"],["Ġm","ust"],["Ġw","ant"],["(","\\"],["e","ar"],["ĠI","f"],["Ġc","ar"],["Ġp","ower"],["Ġimp","ort"],["Y","ou"],["Ġas","s"],["ig","it"],["Ġdat","a"],["Ġle","ad"],["in","ing"],[")",")"],["Ġst","ep"],["$",","],["c","c"],["equ","al"],["Ġon","ly"],["Ġman","y"],["Ġder","iv"],["t","he"],["Ġle","arn"],["Ġ(","-"],["an","e"],["â","Ĥ"],["ct","ing"],["p","ut"],["ic","s"],["Ġa","g"],["i","x"],["Ġto","tal"],["f","ter"],["Ġinc","reas"],["S","t"],["Ġc","ent"],["en","c"],["Ġg","rou"],["i","a"],["Ġvariable","s"],["ech","n"],["Ġnum","er"],["Ġchang","e"],["ord","in"],["ot","s"],["ĠThe","se"],["ĠÃ","Ĺ"],["Ġhe","l"],["--------","--------"],["Ġfactor","s"],["Ġad","d"],["ou","gh"],["s","tit"],["ĠTo","pic"],["g","et"],["q","q"],["Ġqu","adra"],["or","s"],["ul","ation"],["ĠN","ow"],["ĠâĢ","ĵ"],["er","g"],["Ġinter","v"],["Ġrequ","i"],["Ġ","im"],["Ġin","equal"],["Ġl","ook"],["Ġt","echn"],["Ġpoly","nomial"],["Ġal","ong"],["a","ke"],["Ġd","ue"],["ĠL","et"],["at","ter"],["ver","se"],["Ġbe","g"],["Ġev","en"],["Ġ1","2"],["Ġsh","ould"],["Ġdecim","al"],["w","or"],["form","ation"],["Ġe","lect"],["Ġpro","por"],["r","al"],["Ġsu","pp"],["ĠI","t"],["ver","y"],["ĠL","ess"],[")","("],["Ġgen","er"],["oo","d"],["k","s"],["Ġmet","h"],["Ġe","nd"],["Ġ","âĪ"],["Ġh","y"],["Ġse","e"],["}","}"],["Ġr","ate"],["p","es"],["Ġsm","all"],["*","*"],["Ġmo","del"],["Ġre","ct"],["Ġorigin","al"],["Ġbec","ause"],["Ġpar","tic"],["c","ial"],["Ġd","own"],["E","xample"],["Ġsec","ond"],["Ġqu","an"],["Ġdeterm","ine"],["entif","y"],["ĠW","hen"],["s","qrt"],["Ġs","ur"],["o","ve"],["Ġcon","f"],["e","ad"],["Ġ","ve"],["Ġsol","ve"],["Ġdist","rib"],["Ġo","per"],["Ġcom","b"],["Ġb","ack"],["Ġs","k"],["Ġra","ti"],["00","0"],["Ġsimp","l"],["o","p"],["at","ure"],["Ġimport","ant"],["an","s"],["Ġl","ines"],["âĢ","Ļ"],["^","{"],["Ġbe","fore"],["Ġma","ke"],["Ġbas","ed"],["Ġwor","d"],["iv","ale"],["ĠM","ultip"],["St","ep"],["Ġd","uring"],["Ġde","g"],["Ġin","f"],["ĠS","ince"],["Ġbeg","in"],["=","\\"],["i","b"],["ang","les"],["Ġ","<"],["Ġo","p"],["Ġth","ose"],["Ġcont","in"],["(","-"],["ra","m"],["Ġ","â"],["i","ve"],["1","2"],["o","x"],["M","z"],["Ġdecim","als"],["Ġex","am"],["Ġdo","es"],["ĠThe","refore"],["ati","s"],["si","ble"],["Ġc","ol"],["Ġf","urther"],["p","re"],["iv","id"],["Ġtri","angle"],["Ġc","ell"],["Ġconcept","s"],["Ġcalcul","ate"],["Ġg","eomet"],["olum","e"],["ra","w"],["Ġe","very"],["u","ally"],["Ï","Ģ"],["Ġmultip","lication"],["ent","ly"],["Mz","Mz"],["ar","ing"],["y","z"],["ĠP","ro"],["Ġco","st"],["Ġin","i"],["Ġo","cc"],["ĠW","h"],["Ġg","re"],["in","c"],["Ġstud","ents"],["Ġra","di"],["c","os"],["Ġind","ivid"],["Ġcont","ain"],["Ġle","ft"],["Ġ2","0"],["Ġbe","h"],["k","ing"],["Ġb","u"],["Ġg","row"],["ivale","nt"],["Ġpo","s"],[")","\\"],[")","/"],["e","nd"],["Ġmean","s"],["Ġproper","ties"],["Ġconc","lu"],["Ġmathema","tical"],["ff","ect"],["s","er"],["Ġto","get"],["Ġtoget","her"],["Ġm","ight"],["t","s"],["Ġw","as"],["iel","ds"],["Ġcirc","le"],["l","im"],["Ġfin","ding"],["b","ol"],["c","on"],["lic","ations"],["Ġve","ctor"],["Ġ\\","("],["Ġst","and"],["Ġfollow","s"],["..",".."],["Ġsolution","s"],["Â","²"],["Ġa","fter"],["Ġp","ric"],["int","er"],["Ġprac","tice"],["Ġdist","ance"],["Ġsyst","ems"],["Ġra","tional"],["Ġhel","p"],["Ġmultip","le"],["Ġallow","s"],["ist","s"],["w","ard"],["in","d"],["Ġapp","ly"],["i","mple"],["Ġst","ruct"],["Ġb","ase"],["s","in"],["Ġdiffere","n"],["Ġwhe","ther"],["Ġp","ot"],["ĠH","ere"],["Ġv","is"],["Ġlim","it"],["Ġ","Î"],["Ġin","de"],["v","en"],["a","il"],["Ġb","l"],["Ġdiv","ision"],["Ġl","oc"],["Ġrelationship","s"],["Ġal","gebra"],["Ġexpres","s"],["Ġab","ove"],["Ġcorrespon","ding"],["Ġru","le"],["Ġtechn","iqu"],["Ġp","ol"],["wor","ld"],["i","ons"],["Ġco","ordin"],["s","ol"],["r","ight"],["Ġpo","p"],["erg","y"],["--","-"],["Ġob","tain"],["Ġmo","ve"],["he","re"],["ore","m"],["Ġob","ject"],["Ġ","es"],["'","("],["ation","al"],["ĠA","l"],["Ġf","ound"],["em","ber"],["Ġappro","xim"],["Ġh","or"],["Ġn","on"],[")",":"],["Ġdiv","ide"],["i","tion"],["t","a"],["Ġo","pp"],["ent","al"],["ĠE","x"],["Ġpa","ir"],["Ġver","tical"],["p","l"],["ar","ds"],["Ġsol","ving"],["e","ffici"],["ra","ct"],["as","es"],["Ġsum","m"],["Th","is"],["ĠM","o"],["Ġsk","ill"],["Ġc","ru"],["Ġpro","b"],["Ġac","ross"],["`","`"],["âĢ","Ķ"],["Ġm","ark"],["Ġsh","a"],["r","on"],["lo","p"],["Ġp","atter"],["Ġc","ount"],["Ġcon","dition"],["ur","al"],["Ġt","r"],["oc","i"],["Ġle","vel"],["Ġde","pend"],["Ġocc","ur"],["Ġse","ver"],["lu","st"],["Ġco","effici"],["Ġc","ase"],["it","her"],["Ġderiv","ative"],["Â","°"],["Ġf","our"],["id","ed"],["Ġquadra","tic"],["it","u"],["Ġ1","8"],["Ġde","ep"],["Ġin","formation"],["ing","s"],["ĠĠĠĠ","ĠĠĠĠ"],["inter","cept"],["'","t"],["a","w"],["Ġsign","ific"],["s","ure"],["Ġc","ould"],["Ġt","ake"],["Ġcru","cial"],[")","="],["ve","lop"],["Ġsc","en"],["Ġgiv","es"],["Ġen","ergy"],["si","ve"],["Ġser","ies"],["Ġm","ed"],["Ġt","able"],["Ġg","o"],["Ġl","og"],["Ġad","ding"],["is","h"],["vi","ous"],["p","ar"],["v","ity"],["Ġe","ar"],["Ġknow","n"],["iz","on"],["Ġj","ust"],["Ġ","J"],["Ġob","ser"],["Ġ",">"],["Ġsever","al"],["al","cul"],["he","d"],["Ġbec","omes"],["Ġus","ed"],["Ġ","ess"],["le","ft"],["o","int"],["w","ays"],["Ġpart","s"],["Ġresult","s"],["Ġar","ound"],["Ġ","Q"],["ak","es"],["ĠS","ol"],["ar","ge"],["Ġv","olume"],["Ġs","imilar"],["Ġdire","ct"],["ur","n"],["Ġdiffere","nce"],["les","s"],["Ġco","s"],["Ġd","raw"],["is","m"],["er","tain"],["Ġm","ain"],["ra","ph"],["Ġhe","ight"],["Ġty","pes"],["Ġt","est"],["iz","ation"],["inc","ip"],["Ġdiv","iding"],["Ġse","qu"],["w","er"],["Ġ1","00"],["Ġl","arg"],["ĠS","o"],["Ġde","velop"],["i","e"],["a","vi"],["Ġid","entify"],["#","#"],["tim","es"],["in","ally"],["iz","ing"],["Ġs","imple"],["Ġinclu","ding"],["te","xt"],["Ġan","s"],["Ġpre","vious"],["Ġam","ount"],["ot","e"],["ĠLess","on"],["u","pp"],["vi","ew"],["ax","is"],["Ġ","K"],["Ġsub","stit"],["Ġw","ay"],["Ġanal","yz"],["Ġe","le"],["d","igit"],["ĠA","n"],["Ġag","ain"],["Ġresult","ing"],["rodu","ction"],["enc","y"],["Ġof","ten"],["tive","ly"],["t","o"],["Ġequ","ivalent"],["Ġha","nd"],["1","5"],["c","rib"],["olog","y"],["o","st"],["Ġc","a"],["os","ite"],["Ġsubtra","cting"],["an","ces"],["Ġper","form"],["Ġpr","incip"],["Ġsy","m"],["Ġâ","ī"],["c","le"],["Ġcontin","u"],["Ġa","ct"],["Ġre","a"],["Ġinvol","ves"],["Ġt","en"],["ĠC","h"],["ons","ider"],["al","ing"],["u","ch"],["Ġm","aking"],["Ġscen","ari"],["in","ation"],["ati","ves"],["Ġf","ig"],["Ġh","al"],["re","es"],["ĠC","omp"],["Ġinterv","al"],["Ġhor","izon"],["Ġexpon","ential"],["}","$"],["Ġpos","sible"],["ti","l"],["Ġm","on"],["Ġini","tial"],["Ġh","our"],["ut","ing"],["sol","ute"],["ĠR","ec"],["Ġ","ide"],["Ġra","ng"],["Ġs","itu"],["ĠTh","us"],["Ġ","il"],["Ġpar","alle"],["ag","ine"],["Ġ","["],["l","ing"],["c","d"],["Ġc","ap"],["Ġbec","ome"],["w","ards"],["Ġnumer","ator"],["p","ect"],["Ġind","ic"],["Ġess","ential"],["Ġmultip","lying"],["Ġins","ight"],["Ġpropor","tional"],["m","et"],["Ġf","ocus"],["Ġbe","ing"],["Ġtri","angles"],["Ġ1","5"],["Ġes","tim"],["Ġf","und"],["Ġil","lust"],["upp","ose"],["Ġs","in"],["AAAA","AAAA"],["Ġexp","er"],["Ġmo","st"],["se","qu"],["Ġcomp","on"],["en","ces"],["A","s"],["Ġe","as"],["Ġre","du"],["y","st"],["Ġgrow","th"],["m","er"],["Ġstep","s"],["Ġc","are"],["Ġpartic","ular"],["Ġor","der"],["Ġe","mp"],["Ġal","ways"],[".",","],["rate","g"],["Ġtrans","form"],["c","o"],["Ġse","ction"],["F","irst"],["Ġc","ertain"],["Ġchang","es"],["Ġb","re"],["ĠS","pec"],["Ġe","ither"],["Ġprob","ability"],["Ġfin","al"],["Ġm","ag"],["g","an"],["Ġlead","ing"],["Ġu","pon"],["Ġpl","ane"],["Ġgre","ater"],["Ġdistrib","ution"],["F","or"],["Ġcur","ve"],["con","om"],["Ġpro","f"],["Ġh","igh"],["g","g"],["Ġex","act"],["Ġlearn","ed"],["Ġapp","lying"],["ĠW","ith"],["Ġsignific","ant"],["c","ing"],["g","en"],["ear","s"],["Ġwe","re"],["og","n"],["Ġbeh","avi"],["um","ber"],["Ġproper","ty"],["in","ed"],["le","c"],["Ġcal","led"],["Ġt","ru"],["2","5"],["Ġin","fin"],["Ġoper","ations"],["if","e"],["Ġs","ing"],["du","le"],["ĠU","sing"],["ter","n"],["Ġsh","ap"],["Ġlarg","er"],["Ġans","wer"],["Ġinequal","ities"],["f","ect"],["v","alu"],["Ġalgebra","ic"],["p","i"],["Ġequ","als"],["ĠR","e"],["ere","st"],["c","ome"],["Ġde","m"],["Ġst","ra"],["Ġde","l"],["cd","ot"],["or","ding"],["Ġindivid","ual"],["Ġs","a"],["1","1"],["Ġwor","ld"],["Ġdeg","rees"],["i","an"],["N","ext"],["t","ed"],["Ġa","x"],["Ġrel","ated"],["Ġbu","il"],["Ġse","em"],["n","ect"],["Ġwe","ll"],["ri","x"],["Ġsqu","a"],["Ġcha","ract"],["Ġstand","ard"],["Ġpot","ential"],["Ġs","pe"],["n","ing"],["Ġtechniqu","es"],["ix","ed"],["Ġy","ields"],["re","ase"],["Ġdi","ag"],["Ġhe","re"],["Ġsmall","er"],["ĠO","ne"],["1","8"],["Ġpr","im"],["Ġs","ti"],["ĠAd","dition"],["Ġinst","ead"],["Î","¸"],["Ġrati","o"],["Ġh","ig"],["Ġab","solute"],["Ġen","c"],["Ġro","ot"],["Ġposi","tion"],["et","er"],["c","i"],["Ġinst","ance"],["Ġto","ol"],["Ġpop","ulation"],["in","s"],["Ġc","y"],["Ġmultip","ly"],["Ġsing","le"],["Ġfor","ms"],["Ġte","mp"],["Ġthe","orem"],["ic","k"],["Ġapp","lications"],["|","|"],["Ġcondition","s"],["iel","d"],["Ġe","conom"],["Ġsc","ale"],["ĠAd","ding"],["Ġexpl","or"],["Ġtim","es"],["re","ct"],["ĠA","t"],["Ġev","alu"],["Ġt","re"],["Ġgeomet","ric"],["Ġwork","ing"],["ec","ess"],["Ġpric","e"],["Ġrel","ative"],["Ġon","es"],["are","nt"],["Ġquan","tit"],["im","en"],["Ġcont","ext"],["ag","es"],["Ġres","pec"],["Ġinter","se"],["Ġmeth","od"],["5","0"],["Ġconclu","sion"],["\\",")"],["Ġsol","id"],["Ġmean","ing"],["or","m"],["iz","ed"],["Ġdenominator","s"],["Ġsubtra","ction"],["Ġcom","m"],["qq","qq"],["Ġb","i"],["o","ds"],["am","ental"],["Ġtr","ig"],["cul","ar"],["Ġs","eg"],["Ġbehavi","or"],["Ġc","ub"],["Ġnot","ation"],["ĠInt","roduction"],["Ġsha","pe"],["Ġin","put"],["i","I"],["Ġhal","f"],["Ġre","view"],["Ġro","ots"],["Ġsti","ll"],["Ġrect","angle"],["a","ve"],["Ġsh","ow"],["Ġint","erest"],["at","her"],["ĠD","iv"],["l","ight"],["ĠInt","ro"],["ĠMo","dule"],["Ġpolynomial","s"],["Ġover","all"],["Ġremain","s"],["li","er"],["on","omet"],["Ġgrou","p"],["Ġe","m"],["led","ge"],["Ġf","ac"],["Ġpres","ent"],["und","red"],["Ġeas","i"],["Ġout","put"],["i","ed"],["Ġs","ize"],["ific","ally"],["in","omial"],["Ġcons","ist"],["Ġr","ates"],["Ġgraph","s"],["Ġincreas","ing"],["Ġg","over"],["Ġor","gan"],["Ġc","ri"],["_","{"],["Ġcon","g"],["2","0"],["al","ign"],["Ġbe","low"],["iI","iI"],["ver","age"],["Ġbas","ic"],["Ġre","ad"],["m","ath"],["w","here"],["ad","e"],["Ġam","ong"],["a","ctor"],["Ġn","ecess"],["A","P"],["Ġf","re"],["Ġcell","s"],["c","ent"],["ĠM","ore"],["Ġinter","pre"],["'","ve"],["ĠS","ub"],["et","s"],["Ġhorizon","tal"],["..","."],["Ġknow","ledge"],["ĠSpec","ifically"],["Ġinteg","r"],["Ġde","f"],["Ġvis","ual"],["Ġcare","ful"],["Ġdi","ve"],["Ġ*","*"],["Ġinequal","ity"],["ĠC","alcul"],["Ġpatter","ns"],["a","pp"],["f","ace"],["Ġper","fect"],["Ġm","uch"],["om","ain"],["le","ction"],["Ġexpon","ents"],["Ġth","in"],["Ġat","om"],["Ġlim","its"],["l","ation"],["ĠE","qu"],["Ġper","i"],["ar","ith"],["Ġvalu","able"],["Ġsumm","ary"],["re","a"],["Ġs","ample"],["st","ep"],["Ġin","ves"],["Ġph","ys"],["Ġg","ain"],["Ġacc","ur"],["Ġdisc","us"],["Ġthrough","out"],["Ġfor","ce"],["Ġst","rateg"],["ac","hes"],["Ġd","igit"],["Ġdefin","ition"],["ĠA","B"],["Ġres","pon"],["Ġdes","crib"],["y","ing"],["n","ot"],["oc","k"],["\\_","{"],["Ġp","e"],["ĠN","umber"],[")","\","],["Ġdire","ction"],["Ġp","ers"],["Ġro","le"],["Ġun","til"],["Ġsqua","res"],["Ġaddition","al"],["res","s"],["ĠC","onsider"],["lo","g"],["ify","ing"],["the","ta"],["Ġt","urn"],["ĠS","uppose"],["Ġexam","ine"],["Ġma","st"],["eg","in"],["Ġma","xim"],["Ġcong","ru"],["ol","ution"],["d","x"],["Ġcri","tical"],["te","x"],["__","__"],["Ġdif","f"],["Ġsc","i"],["Ġw","ater"],["Ġdeep","er"],["m","a"],["Ġpl","ay"],["ine","ar"],["id","ence"],["ol","d"],["-","\\"],["Ġs","ay"],["Ġcharact","er"],["Ġdel","ve"],["Ġcurrent","ly"],["Ġ","i"],["Ġtemp","er"],["Ġro","t"],["Ġrec","ogn"],["A","l"],["ĠS","imilar"],["Ġfund","amental"],["Ġh","undred"],["p","oint"],["1","6"],["vel","oc"],["nder","stand"],["Ġ1","6"],["Ġ","veloc"],["fere","nce"],["Ġstruct","ure"],["Ġd","omain"],["Ġex","ist"],["Ġinteg","ral"],["Ġquan","ti"],["Ġpl","ot"],["S","ince"],["Ġdirect","ly"],["Ġw","id"],["ith","me"],["ithme","tic"],["Ġint","ro"],["Ġbe","en"],["Ġen","ti"],["Ġse","par"],["l","er"],["Ġmeas","ures"],["MzMz","MzMz"],["Ġ","est"],["âĪ","Ĵ"],["Ġden","ot"],["al","th"],["ten","tion"],["Ġst","ate"],["Ġqu","es"],["Ġad","j"],["Ġrequi","res"],["Ġac","id"],["he","c"],["ver","s"],["ab","l"],["Ġillust","rate"],["Ġp","arent"],["o","ti"],["Ġconver","t"],["Ġmodel","s"],["Ġprov","ide"],["en","e"],["Ġinsight","s"],["ĠB","ut"],["Ġrepresent","ing"],["Ġstra","ight"],["Ġrang","e"],["Ġapproxim","ately"],["Ġsh","if"],["Ġl","aw"],[")","$"],["n","ess"],["Ġc","hem"],["Ġhig","her"],["Ġ","ent"],["ĠF","irst"],["ĠThe","n"],["Ġshap","es"],["x","y"],["Ġcoordin","ate"],["Ġquantit","y"],["v","ation"],["Ġlog","arith"],["Ġass","oci"],["Ġmin","im"],["Ġcon","nect"],["Ġmain","tain"],["Ġfa","ct"],["ĠMultip","lying"],["an","ced"],["A","n"],["Ġgra","de"],["Ġgener","al"],["Ġpre","c"],["nd","s"],["rac","tice"],["Ġl","arge"],["Ġ","You"],["atis","f"],["Ġp","red"],["Ġtru","e"],["Ġ","er"],["Ġin","verse"],["ĠĠ","Ġ"],["Ġcar","b"],["âĤ","ģ"],["a","ra"],["Ġparalle","l"],["Ġbet","ter"],["li","es"],["Ġsh","are"],["w","ise"],["Ġs","atisf"],["Ġat","tention"],["Ġm","i"],["Ġfe","et"],["Ġe","ff"],["F","inally"],["Ġcont","rib"],["p","ot"],["mp","t"],["o","si"],["Ġcan","not"],["Ġman","ip"],["w","ay"],["Ġdem","and"],["Ġpa","ra"],["d","ay"],["Ġlength","s"],["Ġnot","e"],["Ġca","us"],["Ġru","les"],["Ġsu","c"],["Ġgrou","ps"],["a","red"],["k","ed"],["it","al"],["Ġacc","ording"],["Ġcl","ass"],["Ġa","ffect"],["Ġprincip","les"],["ow","ers"],["Ġsur","face"],["u","p"],["iqu","e"],["Ġsequ","ence"],["Ġinteg","er"],["Ġt","ack"],["+","\\"],["et","erm"],["y","ond"],["Ġre","ady"],["Ġear","lier"],[")","}"],["at","ures"],["Ġopp","osite"],["Ġmeth","ods"],["Ġ1","9"],["Ġf","ar"],["nderstand","ing"],["Ġo","w"],["qu","ad"],["Ġty","pe"],["Ġprov","ides"],["Ġacc","ount"],["ĠM","e"],["Ġref","lect"],["Ġdist","in"],["Ġto","wards"],["Ġc","le"],["ut","es"],["ic","t"],["Ġbl","ood"],["lo","se"],["Ġveloc","ity"],["Ġun","ique"],["Ġt","ang"],["Ġfre","qu"],["lec","u"],["Ġe","ffici"],["Ġest","abl"],["ech","an"],["Ġl","ife"],["Ġl","ab"],["el","come"],["mer","ic"],["Ġ(","$"],["th","s"],["ĠW","or"],["Ġmo","tion"],["ra","ng"],["ir","on"],["Ġenti","re"],["u","mp"],["Ġcompon","ents"],["ar","s"],["Ġproduct","s"],["S","o"],["Ġrati","os"],["Ġdefin","ed"],["il","ities"],["Ġe","ffect"],["Ġtrig","onomet"],["Ġradi","us"],["Ġintegr","als"],["Ġinc","rease"],["Ġcent","er"],["Ġinde","pend"],["y","n"],["Ġeff","ec"],["Ġskill","s"],["Ġbe","yond"],["Ġg","l"],["1","4"],["ĠA","meric"],["r","ing"],["i","red"],["Ġm","id"],["Ġc","ross"],["Ġf","ive"],["Ġ\\","\\"],["Ġperi","od"],["ĠP","ractice"],["Ġver","tex"],["Ġre","w"],["'","ll"],["N","T"],["ĠF","actor"],["Ġquanti","ties"],["u","tive"],["I","nt"],["ys","is"],["a","v"],["Ġgover","n"],["Ġde","mon"],["ti","vity"],["o","le"],["ul","ations"],["Ġsp","ace"],["Ġpair","s"],["Ġl","ight"],["}{","\\"],["en","se"],["o","id"],["Ġdemon","st"],["he","ses"],["Al","gebra"],["Ġne","xt"],["Ġn","at"],["ĠP","er"],["``","`"],["Ġmo","lecu"],["Ġcalcul","ations"],["ĠSol","ving"],["Ġrec","all"],["Ġcomp","ute"],["Ġincreas","es"],["Ġ","'"],["Ġtransform","ations"],["Ġb","ound"],["nd","ed"],["Ġcl","os"],["nd","e"],["ĠR","em"],["Ġexact","ly"],["tical","ly"],["Ġcoeffici","ent"],["Ġ","{"],["b","f"],["r","K"],["Ġm","echan"],["ĠAddition","ally"],["ant","s"],["ĠW","elcome"],["Ġc","olum"],["H","ere"],["NT","U"],["Ġ","Y"],["Ġs","qrt"],["Ġh","um"],["Ġmat","rix"],["Ġrea","ction"],["ari","able"],["b","egin"],["Ġsitu","ations"],["Ġe","lim"],["Ġdis","e"],["Ġâī","Ī"],["7","5"],["Ġen","able"],["is","ms"],["Ġke","ep"],["Ġappro","ach"],[",","\\"],["ac","es"],["âĤ","Ĥ"],["ig","ns"],["Ġst","re"],["Ġwh","y"],["N","A"],["li","ke"],["Ġp","ur"],["Ġch","oo"],["m","agine"],["Ġv","ia"],["Ġen","sure"],["as","on"],["Ġa","verage"],["ĠA","r"],["Ġsupp","ose"],["Ġst","ates"],["Ġcoeffici","ents"],["Ġnecess","ary"],["Ġcont","ro"],["ul","l"],["Ġwor","ds"],["Ġa","v"],["Ġscenari","os"],["Ġhour","s"],["Ġ-","--"],["ce","ed"],["imp","l"],["u","es"],["ĠP","l"],["ĠG","raph"],["Ġsimpl","ify"],["Ġh","is"],["*","}"],["ĠD","ec"],["Ġappro","aches"],["w","o"],["n","er"],["p","ri"],["Ġderiv","atives"],["ĠC","o"],["ll","s"],["Ġr","ather"],["1","3"],["Ġid","enti"],["ch","ang"],["Ġinf","lu"],["ĠInt","er"],["Ġobject","s"],["Ġfor","ces"],["Ġle","g"],["ĠWh","at"],["ĠSimilar","ly"],["s","c"],["in","al"],["Ġha","pp"],["Ġcorrespon","ds"],["at","ory"],["Ġr","is"],["Ġd","x"],["ic","ular"],["Ġg","u"],["Ġhy","pot"],["Ġpara","bol"],["....","...."],["Ġno","tice"],["Ġexpress","ed"],["---","|"],["pend","icular"],["Ġ1","4"],["Ġinc","hes"],["Ġsym","met"],["Ġgeomet","ry"],["Ġt","aking"],["Ġ$","("],["h","ing"],["l","ine"],["ĠC","om"],["Ġdistin","ct"],["our","ces"],["Ġre","st"],["Ġen","s"],["d","t"],["orm","al"],["d","ro"],["Ġallow","ing"],["e","red"],["Ġa","ble"],["Ġli","es"],["ent","h"],["yst","ems"],["ĠWh","ile"],["o","tice"],["Ġn","u"],["Ġwrit","ten"],["Ġcongru","ent"],["2","2"],["h","ib"],["Ġdes","ign"],["Ġb","an"],["Ġtemper","ature"],["Ġn","et"],["w","h"],["Ġrew","rite"],["Ġrepresent","ed"],["Ġimp","ro"],["Ġanal","ysis"],["n","c"],["Ġp","ath"],["Ġd","ig"],["v","iron"],["Ġn","ature"],["Ġs","he"],["os","is"],["Ġm","akes"],["ane","ous"],["y","th"],["Ġare","as"],["Ġc","ases"],["Ġf","ut"],["Ġdec","reas"],["Ġwid","th"],["Ġon","ce"],["Ġexp","and"],["Ġf","low"],["k","now"],["Ġapp","lication"],["Ġappro","pri"],["Ĩ","Ĵ"],["Ġm","ass"],["Ġins","ide"],["olog","ical"],["Ġfactor","ing"],["Ġcomp","are"],["Ġre","pe"],["Ġro","w"],["r","ong"],["om","en"],["z","e"],["g","or"],["u","de"],["$$","\\"],["Ġcor","rect"],["ĠLess","ons"],["b","y"],["Ġspe","ed"],["i","or"],["Ġsubtra","ct"],["Ġ","..."],["tic","es"],["Ġrequi","re"],["Ġf","lu"],["Ġpro","te"],["Ġhow","ever"],["Ġdiv","ided"],["iv","en"],["Ġcontain","ing"],["Ġ2","5"],["Ġunder","lying"],["Ġp","owers"],["Ġy","ears"],["Ġanalyz","ing"],["Ġper","pendicular"],["if","ied"],["Ġassoci","ated"],["6","0"],["The","refore"],["Ġmaxim","um"],["Ġb","al"],["Ġh","ad"],["ot","al"],["Ġoccur","s"],["Ġf","l"],["Ġb","inomial"],["Ġpres","sure"],["Ġequ","il"],["ĠTh","rough"],["Ġexplor","ation"],["Ġ$","$"],["Ġex","ists"],["Ġinteg","ers"],["Ġd","ou"],["ĠL","inear"],["Ġm","is"],["Ġdes","ired"],["Ġmo","ving"],["ĠEx","pon"],["Ġtack","le"],["Ġow","n"],["*","("],["Ġth","ough"],["Ġanalyz","e"],["Ġsuc","cess"],["Ġe","l"],["Ġcomp","ound"],["Ġcoordin","ates"],["Ġc","lose"],["Ġqu","oti"],["p","art"],["Ġs","ix"],["Ġdeterm","ining"],["nd","ing"],["Ġrem","ember"],["ĠD","eterm"],["p","ite"],["m","ore"],["Ġstud","y"],["Ġprodu","ction"],["Ġdis","pl"],["m","ic"],["Ġcomp","ared"],["Ġparent","heses"],["Ġpower","ful"],["1","7"],["a","tic"],["is","tic"],["Ġmathema","tics"],["Ġdifferen","ti"],["iv","ing"],["Ġm","ulti"],["b","al"],["ĠD","e"],["Ġbre","ak"],[")","]"],["Ġex","te"],["Ġf","am"],["b","it"],["Ġt","ens"],["Ġm","ixed"],["B","y"],["Ġre","se"],["Ġfig","ures"],["Ġst","atis"],["Ġdeg","ree"],["Ġlevel","s"],["Ġinterpre","t"],["Ġ","ÏĢ"],["if","ies"],["Ġcom","es"],["ĠA","rea"],["Ġnat","ural"],["le","ge"],["Ġd","imen"],["Ġen","viron"],["sequ","ently"],["on","ds"],["Ġexper","i"],["u","se"],["Ġtang","ent"],["an","y"],["on","al"],["ĠMore","over"],["1","9"],["fere","n"],["Ġreg","ion"],["v","ariable"],["Ġagain","st"],["Ġimp","act"],["Ġdepend","ing"],["Ġax","is"],["Ġ","ir"],["er","c"],["il","i"],["ic","ally"],["an","n"],["Ġ1","3"],["Ġper","cent"],["ĠU","nderstanding"],["for","t"],["k","a"],["v","ent"],["}","$."],["ĠThe","y"],["lic","it"],["y","l"],["Ġsubstit","ution"],["u","ro"],["nd","om"],["Ġhe","art"],["Ġim","m"],["Ġde","aling"],["c","omes"],["Ġre","le"],["Ġl","ower"],["rit","ing"],["Ġ","X"],["ra","ms"],["Ġcarb","on"],["in","ding"],["Ġ5","0"],["ti","s"],["Ġex","t"],["g","es"],["Ġ3","0"],["Ġer","r"],["ang","ular"],["Ġf","ield"],["Ġd","il"],["il","it"],["AAAAAAAA","AAAAAAAA"],["em","ent"],["Ġgraph","ing"],["is","ions"],["An","other"],["Ġty","pic"],["Ġar","ithmetic"],["u","als"],["S","k"],["Ġc","m"],["Th","us"],["d","es"],["Ġ1","1"],["Ġb","ox"],["Ġre","ason"],["Ġcent","ral"],["Ġfig","ure"],["ĠM","ath"],["ĠE","xample"],["Ġinterv","als"],["Ġcre","ating"],["Ġcomp","ut"],["Ġcontinu","ous"],["00","00"],["Ġcomple","te"],["Ġgen","e"],["Â","®"],["Ġeng","ine"],["Ġass","um"],["Ġconc","ent"],["Ġb","ra"],["Ġp","as"],["ĠQ","u"],["Ġinves","t"],["Ġdig","its"],["Ġcont","ra"],["{","("],["Ġc","hec"],["Ġra","ndom"],["i","re"],["yn","am"],["Ġm","ade"],["Ġ6","0"],["H","ow"],["Ġgo","al"],["Ġpe","op"],["Ġas","pect"],["Ġinfin","ite"],["ed","i"],["entif","ic"],["Ġcost","s"],["one","y"],[".","$$"],["Ġth","ir"],["Ġ1","7"],["Ġeasi","ly"],["ce","ler"],["ist","ance"],["ol","lege"],["Ġhy","dro"],["Ġseg","ment"],["ĠF","ra"],["Ġspec","ial"],["Ġout","comes"],["Ġpro","g"],["rou","p"],["res","sion"],["Ġqu","ick"],["Ġemp","lo"],["ig","ure"],["ĠT","ra"],["Ġfut","ure"],["Ġconst","ruct"],["Ġwhere","as"],["Ġcomp","aring"],["Ġsym","bol"],["Ġ","_"],["ore","d"],["Ġinde","ed"],["Ġrequi","red"],["2","9"],["Ġst","rong"],["ĠCalcul","us"],["Ġinvol","ve"],["y","m"],["A","t"],["ap","s"],["d","entify"],["Ġstrateg","ies"],["Ġwork","s"],["Ġpro","m"],["ul","ate"],["Ġp","i"],["Ġp","lu"],["Ġp","hen"],["Ġthin","k"],["S","olution"],["know","n"],["Ġmag","nit"],["Ġdou","ble"],["Ġre","ve"],["is","hed"],["Ġr","ound"],["Ġre","t"],["Ġpol","ic"],["U","sing"],["Ġ","Â"],["Ġis","ol"],["Ġpro","t"],["Ġmi","les"],["Ġex","tra"],["Ġ18","0"],["r","ons"],["}","^"],["Ġtool","s"],["Ġd","on"],["Ġdefin","ite"],["Ġfe","el"],["Ġloc","al"],["Ġs","im"],["ĠM","at"],["Ġev","ent"],["Ġ","her"],["a","ves"],["Ġmat","h"],["Ġint","ric"],["Ġ9","0"],["Ġappropri","ate"],["Ġ2","4"],["Ġra","d"],[":","**"],["c","al"],["Ġa","ut"],["Ġha","ving"],["ĠF","ind"],["Ġmark","et"],["ri","es"],["ure","ka"],["ar","ding"],["Ġf","all"],["Ġf","ields"],["Ġscenari","o"],["urther","more"],["W","hen"],["ĠAl","gebra"],["ĠRem","ember"],["ĠB","C"],["Ġenc","ount"],["Ġmeasure","ment"],["ie","ce"],["u","di"],["Ġgl","ance"],["ri","ve"],["s","ide"],["ĠTh","at"],["Ġexpon","ent"],["Ġide","a"],["math","bf"],["s","p"],["ĠG","et"],["ĠSub","tra"],["Ġpar","tial"],["ĠE","ar"],["Ġhum","an"],["C","ollege"],["ti","li"],["Ġin","du"],["ib","ri"],["ĠT","wo"],["Ġpeop","le"],["Ġle","ast"],["Ġcalcul","ated"],["Ġne","ar"],["Ġchoo","se"],["r","id"],["Ġcle","ar"],["Ġwh","ose"],["Ġrea","ctions"],["Ġrespec","tive"],["Ġat","t"],["V","V"],["Ġexp","ect"],["Ġmast","ering"],["=","-"],["How","ever"],["Ġelect","ron"],["Ġstruct","ures"],["1","00"],["N","Y"],["ir","m"],["hes","is"],["Ġv","i"],["et","y"],["os","ed"],["Ġpl","an"],["ĠE","ach"],["Ġdifferen","ces"],["/","("],["E","ng"],["Ġh","ol"],["Ġinvol","ved"],["P","ro"],["Ġprec","ise"],["Ġd","r"],["Ġelect","ric"],["ist","ry"],["od","y"],["Ġconcent","ration"],["Ġapp","ear"],["ration","al"],["ĠNumber","s"],["is","es"],["Ġgovern","ment"],["O","ne"],["im","eter"],["age","NY"],["ĠComp","aring"],["Ġcontro","l"],["Eng","ageNY"],["ĠF","inally"],["Ġcirc","um"],["osi","tion"],["l","tim"],["Ġremain","ing"],["Ġs","w"],["Ġan","ti"],["Ġbuil","d"],["s","tim"],["Ġpatter","n"],["Ġform","ed"],["^","("],["Ġac","celer"],["Ġtable","s"],["ĠI","dentify"],["Ġs","ense"],["Ġal","tern"],["Ġex","c"],["ne","tic"],["ĠIn","st"],["ĠCon","sequently"],["Ġc","ate"],["sel","ves"],["Ġinterse","ct"],["ĠMultip","ly"],["ĠRec","all"],["Ġf","ree"],["ic","es"],["Ġexper","im"],["Ġeffec","tively"],["Ġm","om"],[")/","("],["Ġhel","ps"],["Ġim","agine"],["Ġrect","angles"],["Ġidentify","ing"],["Ġtrans","l"],["Ġref","ers"],["Ġy","et"],["Ġdiscus","s"],["Ġtypic","ally"],["ĠF","urthermore"],["Ġnu","cle"],["Ġprocess","es"],["j","ec"],["ch","o"],["ment","ary"],["Ġto","o"],["yth","ag"],["Ġele","ments"],["\\","["],["Ġth","us"],["Ġdef","ine"],["at","s"],["ore","an"],["âĪ","ł"],["Ġop","tim"],["Ġchalleng","es"],["er","y"],["Ġeconom","ic"],["Ġn","ormal"],["Ġaccur","ately"],["Ġdenot","es"],["Ġmo","d"],["Ġl","ow"],["Ġenable","s"],["Ġvector","s"],["id","ent"],["Ġphen","omen"],["Ġrespec","tively"],["Ġhe","alth"],["Ġis","s"],["Ġen","ough"],["Ġrese","ar"],["i","o"],["Ġexam","ining"],["##","#"],["se","c"],["Ġindepend","ent"],["Ġm","oney"],["o","ly"],["Ġsupp","ort"],["Ġ","."],["Ġop","en"],["Ġex","hib"],["si","b"],["ï","¸"],["Ġreg","arding"],["Ġfe","atures"],["Ġparabol","a"],[")","-"],["}","=\\"],["Â®","ï¸"],["Â®ï¸","İ"],["b","ox"],["Ġdiv","is"],["ythag","orean"],["or","ing"],["Ġequil","ibri"],[")","+"],["ater","al"],["Ġs","light"],["Ġv","ol"],["Ġspec","ies"],["Ġenviron","ment"],["Ġcomm","un"],["Ġdemonst","r"],["ĠO","n"],["Ġcons","ists"],["qqqq","qqqq"],["Ġact","ual"],["E","ureka"],["Ġp","ay"],["Ġpropor","tion"],["ĠF","un"],["Ġprodu","ce"],["Ġl","and"],["Ġini","ti"],["Ġuse","ful"],["Ġtrigonomet","ric"],["---|","---|"],["Ġab","ility"],["}","("],["Ġm","em"],["Ġhapp","ens"],["iIiI","iIiI"],["ri","p"],["d","d"],["ĠF","ound"],["sion","al"],["Ġsu","gg"],["Ġmolecu","les"],["Ġprov","ided"],["\\",";"],["Ġelect","rons"],["Â®ï¸İ","/"],["Ġcolum","n"],["Ġw","ays"],["ĠA","ng"],["Ġm","ar"],["C","on"],["Ġneed","ed"],["C","H"],["3","0"],["s","um"],["Ġf","t"],["Ġrepresent","ation"],["ft","y"],["Ġcons","um"],["tit","ution"],["Ġdimen","sions"],["p","id"],["ĠG","eomet"],["ĠP","ythagorean"],["ĠO","ur"],["Ġcontin","ue"],["Ġmagnit","ude"],["o","b"],["Ġg","as"],["Ġquick","ly"],["ltim","ately"],["Ġwe","ight"],["in","fty"],["im","als"],["Ġadv","anced"],["&","="],["}","$$"],["ĠO","per"],["/","/"],["om","me"],["Ġ&","="],["p","y"],["Ġmeasure","ments"],["ĠH","e"],["I","t"],["r","im"],["Ġpro","ceed"],["Ġdraw","ing"],["omet","hing"],["Ġtechniqu","e"],["Ġcha","in"],["ub","stit"],["Ġinfin","ity"],["in","ating"],["is","ed"],["Ġav","ail"],["l","n"],["Ġar","rang"],["lic","ated"],["Ġmeas","uring"],["ĠE","stim"],["Ġun","known"],["Ġset","ting"],["Ġrespon","se"],["Ġcom","e"],["ĠFound","ations"],["ĠCon","ver"],["Ġsitu","ation"],["Ġf","ew"],["Ġoper","ation"],["Ġminim","um"],["Ġsugg","est"],["Ġb","ody"],["Ġs","igns"],["Ġstart","ing"],["Ġl","ast"],["Ġb","o"],["Ġapp","lied"],["Ġsymmet","ry"],["2","4"],["Ġsequ","ences"],["os","ing"],["Ġun","like"],["Ġac","ti"],[")","\"."],["Ġcur","ves"],["Ġindivid","uals"],["u","g"],["Ġmin","d"],["i","ble"],["Ġc","ir"],["Ġpol","i"],["it","ing"],[".",")"],["g","ain"],["Ġext","re"],["Ġmed","ian"],["Ġs","ell"],["Ġlearn","ing"],["Ġestim","ate"],["Ġ\\","(\\"],["Ġs","omething"],["Ġquadra","tics"],["Ġrecogn","izing"],["Ġradi","ans"],["Ġslight","ly"],["oc","ks"],["ch","ing"],["Ġincreas","ed"],["Ġintric","ate"],["Ġlead","s"],["Ġcub","e"],["ĠOper","ations"],["ĠA","fter"],["Ġcon","ne"],["ac","ent"],["ĠA","P"],["âĢ","Ŀ"],["Ġar","g"],["Ġch","arge"],["ĠÎ","Ķ"],["ch","ie"],["E","x"],["ti","g"],["Ġcontain","s"],["Ġa","way"],["Ġspecific","ally"],["Ġp","iece"],["Ġmom","ent"],["Ġadj","ust"],["ĠS","ystems"],["Ġdi","am"],["i","ent"],["Ġch","arg"],["Ġdise","ase"],[".","\""],["Ġt","ax"],["cho","ol"],["Ġ(","\\"],["an","cial"],["Ġapp","les"],["Ġques","tion"],["al","ity"],["Ġte","lls"],["Ġset","s"],["ĠO","nce"],["Ġpric","es"],["Ġconstant","s"],["i","ved"],["Ġidenti","ty"],["Ġdiff","ic"],["Ġthir","d"],["Ġ","`"],["ĠInst","ead"],["Ġquoti","ent"],["Ġact","ually"],["ĠCo","mple"],["Ġequilibri","um"],["Ġa","chie"],["r","m"],["Ġver","tices"],["a","ctions"],["Ġint","u"],["Ġd","ay"],["ĠFactor","ing"],["Ġcons","id"],["Ġv","s"],["box","ed"],["ĠEar","th"],["ur","y"],["Ġnumer","ous"],["Ġclos","er"],[")","\""],["e","ep"],["4","5"],["r","il"],["Ġt","akes"],["Ġtw","ice"],["z","ero"],["lo","bal"],["}","^{"],["Ġfound","ation"],["ĠâĪ","Ĵ"],["ult","aneous"],["Ġacceler","ation"],["g","o"],["Ġs","ine"],["Ġf","it"],["ĠW","ar"],["Ġ","ion"],["omme","nded"],["Ġsignificant","ly"],["Ġb","ene"],["Ġm","us"],["i","tions"],["Ġinter","n"],["ard","less"],["Ġid","en"],["(","("],["rac","y"],["Ġcomp","licated"],["co","ordin"],["MzMzMzMz","MzMzMzMz"],["t","le"],["Ġaccur","ate"],["Ġcap","ac"],["f","er"],["Ġmis","sing"],["as","ed"],["Ġon","to"],["Ġdevelop","ment"],["ĠW","riting"],["Ġconsid","ering"],["ĠInt","eg"],["ric","es"],["t","in"],["ĠThe","re"],["vol","ution"],["Ġcos","ine"],["c","om"],["Ġl","it"],["Ġformul","as"],["----------------","----------------"],["Ġphys","ics"],["r","ig"],["er","os"],["Ġopp","ort"],["Ġcirc","les"],["Ġbal","ance"],["re","at"],["Ġres","pect"],["Ġdifferen","tial"],["3","9"],["e","e"],["c","hes"],["o","v"],["Ġp","or"],["Ġpl","ots"],["y","mpt"],["ic","ation"],["Ġprac","tic"],["Ġcompon","ent"],["Ġdi","verse"],["st","s"],["ne","y"],["ing","ly"],["Ġsh","ort"],["Ġres","ources"],["xy","gen"],["â","ģ"],["as","c"],["ss","ess"],[")","}{"],["er","al"],["th","ough"],["Ġdist","ances"],["ĠâĢ","ľ"],["Ġsum","s"],["ĠMat","hema"],["}","="],["Ġ4","0"],["u","ration"],["Ġt","enth"],["Ġtra","vel"],["ĠU","n"],["Ġm","ill"],["Ġevalu","ate"],["Ġcareful","ly"],["Ġapp","ears"],["ĠG","iven"],["ar","is"],["||","||"],["Ġparticular","ly"],["Ġmin","utes"],["^","-"],["Ġques","tions"],["oc","ial"],["ĠDiv","iding"],["ĠAmeric","an"],["enti","ally"],["ĠS","impl"],["Ġcalcul","ation"],["Ġdet","ail"],["Ġcomb","ined"],["Ġtrans","formation"],["Ġst","ory"],["ous","and"],["Ġsubstit","ute"],["re","n"],["Ġproportional","ity"],["Ġc","ult"],["ĠMultip","lication"],["âĪ","ŀ"],["Ġrect","angular"],["ĠTra","ns"],["Ġfrequ","ency"],["Ġmet","ers"],["re","te"],["ĠâĪ","ļ"],["Ġparalle","log"],["Ġpa","ram"],["Ġdiffic","ult"],["ys","rK"],["Ġbuil","ding"],["Ġengine","ering"],["Ġg","ive"],["ari","ly"],["Ġvis","ually"],["Ġeasi","er"],["ĠS","h"],["ĠI","I"],["Ġiden","tical"],["in","ary"],["Ġtre","at"],["Ġemplo","y"],["re","g"],["ĠN","otice"],["Ġindic","ates"],["in","ations"],["Ġb","all"],["l","or"],["Ġfraction","al"],["Ġphys","ical"],["M","AP"],["Ġb","onds"],["Ġth","ings"],["Ġsci","entific"],["er","t"],["Ġf","ull"],["ĠRec","ommended"],["Ġv","al"],["Ġdec","ay"],["ĠApp","lying"],["\\;","\\;"],["Ġprov","iding"],["Ġsim","ultaneous"],["Ġir","rational"],["ĠThe","orem"],["Ġru","n"],["Ġmat","ter"],["Ġdistrib","utive"],["Ġconnect","ing"],["ĠN","ext"],["Ġcol","l"],["Ġbeh","ind"],["app","y"],["Ġacc","um"],["ec","es"],["Ġl","os"],["Ġnumer","ical"],["ĠC","ong"],["Ġp","ound"],["Ġconf","idence"],["h","y"],["ti","tion"],["t","t"],["Ġser","ve"],["Ġatom","s"],["ĠO","b"],["âĪ","ļ"],["^{","-"],["Ġfin","ancial"],["Ġre","ce"],["Ġcorrespon","d"],["2","7"],["}","}{"],["Ġu","tili"],["Ġseg","ments"],["ur","ns"],["Ġim","age"],["Ġobser","ve"],["ol","l"],["Ġelim","ination"],["ĠEx","p"],["ĠD","NA"],["u","ps"],["e","ction"],["er","ia"],["ĠH","appy"],["\\","*"],["oo","ds"],["Ġsub","st"],["Ġs","oci"],["unit","y"],["i","ous"],["i","ans"],["Ġin","form"],["Ġar","t"],["ĠO","ver"],["Ġsimpl","ifies"],["Ġbas","es"],["z","ing"],["Ġnon","zero"],["Ġo","xygen"],["Ġl","ay"],["ĠPro","per"],["Ġperform","ing"],["om","s"],["imen","sional"],["Ġsupp","ly"],["Ġisol","ate"],["Ġen","h"],["i","ke"],["Ġtrans","p"],["ĠN","ote"],["}",")"],["Ġchang","ing"],["Ġestabl","ished"],["Ġt","rac"],["is","ing"],["Ġexp","an"],["}","."],["Ġexplore","d"],["Ġs","chool"],["Ġexplor","ing"],["Ġevalu","ating"],["Ġa","im"],["Ġev","idence"],["ub","lic"],["Ġf","il"],["Ġindic","ating"],["Ġf","ixed"],["Ġv","ary"],["Ġconst","ra"],["Ġe","d"],["}",","],["is","s"],["A","B"],["Ġdat","ase"],["d","le"],["d","imensional"],["it","es"],["Ġrot","ation"],["Ġeffect","s"],["ĠâĪ","«"],["pre","ting"],["ri","end"],["el","ta"],["m","ark"],["Ġto","p"],["Ġde","b"],["if","feren"],["ar","m"],["Ġpo","ssess"],["ator","s"],["Ġcomp","re"],["ad","ril"],["Ġst","udi"],["ph","a"],["Ġb","ro"],["Ġpl","ays"],["Ġsome","times"],["Ġide","as"],["Ġcomp","osite"],["Ġpur","ch"],["Ġimport","ance"],["Ġsh","own"],["8","0"],["Ġper","imeter"],["Ġde","vi"],["Ġhol","ds"],["l","am"],["Ġinc","ome"],["e","f"],["Ġcom","fort"],["Ġpractic","ing"],["a","ving"],["Ġreason","ing"],["chang","e"],["roup","ing"],["Ġens","uring"],["ir","ing"],["ĠR","ational"],["iz","z"],["Î","Ķ"],["D","elta"],["ab","ilities"],["Ġavail","able"],["il","d"],["Ġchem","ical"],["Ġas","ympt"],["ven","ue"],["Ġdefin","itions"],["Ġp","ass"],["Ġ","q"],["Ġlook","ing"],["ra","de"],["Ġdepend","s"],["â","ĨĴ"],["Ġpi","eces"],["pp","ing"],["j","or"],["Ġother","s"],["Ġcate","gor"],["Ġj","our"],["Ġend","point"],["Ġdec","isions"],["ĠP","oly"],["og","raph"],["F","L"],["Ġear","ly"],["Ġconsist","ent"],["Ġestabl","ish"],["Ġp","ati"],["Ġshow","s"],["Ġd","id"],["g","ence"],["Ġz","eros"],["o","ph"],["Ġread","ing"],["ĠI","magine"],["Ġconver","ting"],["i","um"],["Ġcal","l"],["Ġobtain","ed"],["ĠDeterm","ine"],["Ġu","ltimately"],["im","al"],["Ġprim","e"],["ynam","ics"],["Ġe","ight"],["Ġt","arg"],["Ġcomp","uting"],["Ġinterse","ction"],["Ġar","rive"],["ĠR","ep"],["ĠExpon","ential"],["Ġ1","000"],["4","0"],["Ġs","l"],["$",":"],["ĠF","rom"],["Ġra","pid"],["t","on"],["Ġb","ar"],["Ġreview","ing"],["ble","m"],["Ġt","an"],["âĢ","ĭ"],["ump","tion"],["Ġb","us"],["Ġerr","or"],["ĠI","nde"],["Ġmat","rices"],["Ġcar","ry"],["ĠDiv","ide"],["Ġconstra","int"],["Ġex","erc"],["Ġe","f"],["in","ess"],["ri","angle"],["Ġtra","de"],["Ġprim","ary"],["vers","ity"],["Ġre","ach"],["Ġmo","le"],["Ġcomb","ining"],["Ġmag","netic"],["Ġe","arn"],["Ġ-","\\"],["Ġshif","t"],["B","ut"],["Ġconc","er"],["{","-"],["Ġprincip","le"],["|","----"],["uro","pe"],["Ġy","ear"],["Ġver","s"],["ĠO","r"],["Ġw","ave"],["}","$,"],["Ġch","o"],["our","ce"],[",","\""],["ĠS","c"],["ĠE","valu"],["Ġrec","ip"],["ili","ar"],["Ġchec","k"],["Ġb","ond"],["Ġreg","ions"],["Ġpos","sib"],["tin","u"],["Ġre","d"],["ĠN","ew"],["Ġpred","ic"],["om","b"],["Ġreg","ardless"],["re","ci"],["Ġth","ousand"],["ĠMe","an"],["e","mp"],["en","tion"],["gg","ing"],["ĠM","ulti"],["Ġprof","ici"],["Ġm","arg"],["Ġinc","or"],[")","$."],["I","magine"],["Ġhist","or"],["Ġlab","or"],["Ġa","ction"],["3","3"],["Ġc","ups"],["Ġremain","der"],["Ġdiam","eter"],["Ġcomfort","able"],["]","("],["Ġsur","rou"],["Ġser","ves"],["Ġsepar","ate"],["Ġris","k"],["her","s"],["ĠE","urope"],["Ġp","izz"],["Ġsu","re"],["Ġcon","du"],["Ġfa","il"],["an","c"],["Ġreg","ular"],["ĠAn","al"],["Ġmo","der"],["2","1"],["Ġexp","licit"],["Ġwe","e"],["Ġcomp","e"],["Ġadj","acent"],["W","or"],["W","ith"],["Ġs","ocial"],["Ġinflu","ence"],["jec","tive"],["Ġmultip","lied"],["Ġmaterial","s"],["6","7"],["Ġs","lic"],["p","m"],["Ġf","riend"],["Ġse","ctions"],["iz","es"],["C","D"],["ĠR","i"],["Ġimp","lies"],["Ġfac","ilit"],["Ġdistribution","s"],["Ġjour","ney"],["Ġcontinu","ity"],["in","ate"],["ĠF","inding"],["Ġgiv","ing"],["Ġma","jor"],["Ġthem","selves"],["Ġvisual","ize"],["t","ers"],["Ġcomb","ine"],["Ġhy","per"],["Ġseem","ingly"],["Ġr","ise"],["ific","ation"],["Ġobser","v"],["Ġtopic","s"],["ect","or"],["e","x"],["ul","ating"],["Ġal","ign"],["Ġbas","ics"],["ĠFun","ctions"],["ot","es"],["Ġapp","reci"],["Ġsimultaneous","ly"],["L","S"],["i","ti"],["Ġp","ain"],["Ġform","ation"],["Ġcirc","u"],["C","onsider"],["Ġpro","ve"],["ĠA","cc"],["ĠQu","adra"],["Ġcomb","inations"],["Ġme","et"],["-",">"],["Ġl","o"],["ĠGraph","ing"],["Ġf","asc"],["Ġfollow","ed"],["Ġpres","ence"],["h","at"],["Ġb","ot"],["Ġloc","ation"],["Ġsuccess","ful"],["Ġsatisf","y"],["Ġvertical","ly"],["Ġbre","aking"],["Ġdenot","ed"],["Ġ4","5"],["p","ng"],["ĠS","ec"],["Ġref","lection"],["t","c"],["er","v"],["d","own"],["Ġwor","th"],["Ġcircum","ference"],["ve","c"],["Ġincreasing","ly"],["Ġsm","o"],["Ġmid","point"],["ĠComple","x"],["Ġg","lobal"],["ust","om"],["Ġmon","omial"],["Ġgrou","nd"],["Ġphenomen","a"],["S","ol"],["Ġconclu","de"],["Ġhundred","ths"],["Ġden","ote"],["Ġprof","it"],["!","["],["Ġy","ield"],["Ġ",":"],["Ġqu","adril"],["Ġpres","er"],["Ġg","oods"],["Ġaut","h"],["en","use"],["Ġpl","aces"],["el","s"],["u","c"],["Ġadd","ed"],["Ġse","lect"],["Ġto","day"],["Ġsc","a"],["Ġstart","ed"],["fin","ed"],["ĠSub","stit"],["Ġ3","6"],["Ġmultip","les"],["Ġdo","ing"],[")","=\\"],["Ġf","ore"],["Ġelect","ro"],["Ċ","ĠĠ"],["Ġvol","t"],["Ġde","p"],["as","tic"],["C","M"],["Ġloc","ated"],["Ġdoes","n"],["âĪ","«"],["Ġ8","0"],["l","ace"],["Ġhe","at"],["--------","----"],["ast","ly"],["Ġform","ing"],["ak","en"],["Ġw","ide"],["Ġsimpl","er"],["ĠN","on"],["Ġmove","ment"],["u","ng"],["â","ī"],["on","om"],["iv","il"],["ĠEqu","ations"],["F","igure"],["he","st"],["Ġat","te"],["Ġit","ems"],["Ġpoli","tical"],["ĠR","es"],["ĠD","is"],["Ġlogarith","mic"],["ĠAd","d"],["N","D"],["o","res"],["ar","row"],["res","ent"],["Ġcomp","aris"],["Ġcap","ital"],["y","si"],["Ġbene","f"],[")","$,"],["Ġl","n"],["pp","er"],["Ġdi","ver"],["Ġsy","nt"],["id","s"],["ari","es"],["Ġem","erg"],["bit","ra"],["ĠSubtra","cting"],["ĠD","i"],["Ġp","ut"],["Ġout","side"],["ĠD","es"],["Ġdes","pite"],["i","tive"],["th","ing"],["fin","ite"],["Ġm","y"],["lo","pes"],["Ġin","n"],["ord","er"],["Ġa","ir"],["Ġc","ut"],["ang","u"],["coordin","ate"],["d","ed"],["Ġcomp","any"],["ĠH","ence"],["c","rip"],["ĠWor","ked"],["em","ann"],["âĤ","Ģ"],["Ġparallelog","ram"],["ĠPoly","nomial"],["se","t"],["Ġassum","e"],["b","s"],["Ġg","ood"],["ĠP","h"],["Ġcount","er"],["Ġmed","ic"],["ir","ms"],["Ġhydro","gen"],["Ġiniti","ally"],["Ġmole","cular"],["ag","ement"],["ic","ro"],["Ġhundred","s"],["Ġtarg","et"],["verse","ly"],["Ġmem","bra"],["ĠRi","emann"],["al","k"],["Ġar","bitra"],["Ġt","as"],["Ġcy","cle"],["]",","],["Ġmeasure","d"],["ĠÎ","¸"],["sequ","ent"],["Ġdivis","or"],["9","0"],["Ġpro","p"],["ĠĠĠĠ","Ġ"],["Ġprodu","ced"],["Ġaspect","s"],["Ġo","dd"],["Ġindu","st"],["Ġexpan","sion"],["Ġeffici","ently"],["er","n"],["Ġtransp","ort"],["ou","ra"],["um","ent"],["or","ies"],["crib","ed"],["Ġso","le"],["Ġtenth","s"],["Ġ2","00"],["Ġcontext","s"],["r","is"],["v","ices"],["A","D"],["Ġh","old"],["ĠA","gain"],["Ġbinomial","s"],["Ġs","lopes"],["Ġre","venue"],["ou","se"],["ĠCon","st"],["Ġpropor","tions"],["Ġpop","ulations"],["ĠInter","preting"],["ĠWor","ld"],["Ġexhib","it"],["ĠMe","as"],["Ġmar","ble"],["ĠEqu","ivalent"],["par","tial"],["Ġsolid","ify"],["Ġl","angu"],["ĠÂ","±"],["Ġmechan","isms"],["e","fore"],["lu","e"],["Ġw","all"],["ĠL","aw"],["Ġrecip","ro"],["Ġadv","ant"],["Ġex","change"],["iv","es"],["ĠH","ist"],["Ġbl","ocks"],["Ġgene","tic"],["Ġfasc","inating"],["Ġ","Z"],["Ġdescrib","e"],["Ġdefin","ing"],["Ġcol","on"],["G","rade"],["Ġte","nd"],["Ġcan","ce"],["Ġdeterm","ined"],["Ġc","at"],["Ġconver","sion"],["m","in"],["wh","ich"],["Ġexpand","ed"],["Ġencount","er"],["en","g"],["Ġ(","("],["ut","ed"],["Ġpr","ism"],["S","impl"],["d","en"],["Ġmoder","n"],["Ġne","are"],["Ġref","er"],["**",":"],["A","d"],["Ġvi","ew"],["d","y"],["t","LS"],["Ġ3","5"],["Ġinterpre","ting"],["ar","di"],["ĠC","ons"],["Ġinter","actions"],["Ġtre","nds"],["AAAAAAAAAAAAAAAA","AAAAAAAAAAAAAAAA"],["Ġmo","ves"],["Ġun","c"],["Ġder","ived"],["Ġs","pend"],["Ġsc","aling"],["ĠIt","s"],["ti","le"],["ĠV","olume"],["M","ultip"],["Ġra","ised"],["Ġpas","sing"],["ĠCom","mon"],["t","an"],["Ġthe","ory"],["|","\\"],["=","("],["alcul","us"],["Ġhigh","light"],["et","h"],["li","p"],["2","3"],["r","ating"],["is","tics"],["Ġl","ater"],["Ġcub","ic"],["Ġpartic","ip"],["Ġcy","c"],["ĠDec","imals"],["Ġc","ustom"],["|----","|----"],["n","si"],["o","h"],["Ġsepar","ately"],["Ġstudi","es"],["Ġbus","iness"],["}","+"],["re","ad"],["Ġcon","ven"],["Ġpa","st"],[":","//"],["Ġin","he"],["ce","p"],["Ġdec","rease"],["Ġexpect","ed"],["b","ability"],["S","uppose"],["d","ers"],["h","tt"],["enc","ies"],["ĠI","s"],["ri","al"],["i","ly"],["Ġredu","cing"],["m","it"],["Ġle","aving"],["Ġsh","ad"],["Ġman","age"],["D","iv"],["Ġv","ir"],["ĠS","p"],["S","ubstit"],["le","x"],["Ġpre","vent"],["Ġsha","red"],["Ġneare","st"],["Ġcaus","ing"],["Ġdiag","n"],["^","\\"],["Ġaccording","ly"],["ĠK","eep"],["Ġrecogn","ize"],["ĠL","im"],["Ġval","id"],["Ġcompre","hen"],["Ġa","ge"],["Ġsub","sequent"],["enti","met"],["Ġdisc","over"],["C","l"],["a","pt"],["htt","ps"],["Ġâ","ĨĴ"],["Ġintrodu","ce"],["er","iv"],["Ġis","n"],["ĠCon","versely"],["Ġd","oll"],["Ġpoly","g"],["ĠFra","ctions"],["Ġret","urn"],["Ġhypot","enuse"],["ĠA","C"],["ro","p"],["Ġdecreas","ing"],["ĠV","er"],["Ġiss","ues"],["Ċ","Ġ"],["Ġab","s"],["Ġinter","ior"],["Ġstud","ying"],["Ġtrigonomet","ry"],["ĠA","nd"],["Ġdecreas","es"],["Î","±"],["ution","s"],["Ġ","ions"],["le","ctions"],["I","ns"],["Ġb","est"],[")","*"],["ace","ment"],["t","om"],["ĠU","S"],["Ġvolt","age"],["Ġar","ch"],["Ġac","tivity"],["Ġmathematical","ly"],["ac","ing"],["Ġtr","inomial"],["Ġinform","ed"],["$","\\"],["ll","ing"],["Ġcharacter","istics"],["ĠS","ome"],["Ġfam","iliar"],["3","6"],["im","g"],["c","tive"],["ti","f"],["Ġpercent","age"],["Ġdatase","t"],["Ġar","ise"],["Ġres","istance"],["ed","eral"],["Ġex","tern"],["Ġor","ient"],["ĠR","eg"],["ĠProper","ties"],["Ġc","up"],["arra","ng"],["ĠGeomet","ric"],["Sk","r"],["ĠS","um"],["Ġmaintain","ing"],["2","8"],["Ġc","entimet"],["Ġ$","-"],["Ġb","or"],["ĠP","oint"],["b","e"],["nt","ing"],["Ġli","e"],["Ġfa","v"],["ĠCalcul","ate"],["Ġdifferenti","ation"],["Ġsole","ly"],["Ġh","ome"],["C","omp"],["Ġim","ag"],["Ġpred","ict"],["Ġcontrib","ute"],["Ġauth","or"],["Ġtra","dition"],["Ġrad","ical"],["c","hers"],["Ġachie","ve"],["ĠC","l"],["r","ated"],["Ġn","eg"],["b","o"],["Ġpol","ar"],["hem","istry"],["Ġgo","es"],["Ġprevious","ly"],["Ġsci","ence"],["Ġreve","als"],["ĠRe","al"],["Ġmanip","ulate"],["Ġaccum","ulation"],["Ġsu","g"],["Ġnam","e"],["Ġpers","on"],["Ġparam","et"],["Ġobserv","ations"],["h","ol"],["valu","e"],["Ġshif","ts"],["N","otice"],["Ġfor","ward"],["Ġrel","ate"],["Ġthere","by"],["Ġmid","dle"],["Ġdise","ases"],["ĠR","el"],["Ġcons","tit"],["Ġintrodu","ced"],["Ġrepe","ated"],["ĠInde","ed"],[",","-"],["a","ction"],["a","pe"],["Ġenvironment","al"],["Ġintu","ition"],["Ġe","tc"],["os","en"],["Ġinves","tig"],["Ġcir","cular"],["Ġpor","tion"],["q","ysrK"],["Ġthe","ore"],["ces","sive"],["t","ally"],["Ġev","olution"],["Ġrequ","iring"],["Ġlogarith","m"],["Ġredu","ced"],["Ġlangu","age"],["img","ur"],["v","ant"],["Ġmark","ets"],["Ġdescrib","ed"],["s","h"],["Ġ","Ï"],["ĠMathema","tically"],["Ġchalleng","e"],["Sol","ving"],["Ġsignific","ance"],["Ġhistor","ical"],["The","se"],["Ġdiag","ram"],["app","ro"],["Ġrest","ric"],["ĠD","eriv"],["ĠI","nd"],["o","k"],["ab","ly"],["ĠAnal","yz"],["Ġrecipro","cal"],["A","pp"],["Int","eg"],["Ġaltern","ative"],["Ġinclu","des"],["ide","red"],["Ġstatis","tics"],["ol","ar"],["us","es"],["Ġtra","nsi"],["Ġcomb","ination"],["ĠPro","bability"],["ates","t"],["Ġli","bra"],["Ġfact","ored"],["[","("],["Ġbu","y"],["Ġspe","aking"],["A","rea"],["ra","tive"],["cept","s"],["Ġextern","al"],["}}","}}"],["Ġch","osen"],["Ġcons","idered"],["VV","VV"],["k","et"],["ĠB","oth"],["ĠD","ifferen"],["ĠFor","m"],["Ġneed","s"],["Ġn","or"],["as","ses"],["mp","l"],["Ġconf","irm"],["f","rom"],["ic","ial"],["ĠSol","ve"],["Ġnet","wor"],["Ġprote","ins"],["Ġdevi","ation"],["Ġlook","s"],["h","as"],["Ġd","u"],["Ġinput","s"],["Ġidenti","ties"],["Ġse","ven"],["Ġst","ability"],["ĠâĪ","ł"],["Ġthere","fore"],["Ġpizz","a"],["ĠE","mp"],[")",";"],["Ġb","ook"],["Ġplu","s"],["c","er"],["Ġp","ict"],["Ġcent","ury"],["at","rix"],["Ġd","ot"],["Ġop","ens"],["Ġamount","s"],["Ġhorizon","tally"],["Ġmarg","inal"],["}","}\\"],["ĠD","o"],["Ġw","ar"],["il","s"],["ĠD","E"],["\\","),"],["Ġf","ood"],["un","ities"],["Ġk","ine"],["Ġcol","lect"],["Ġm","ut"],["Ġpolic","y"],["ĠT","riangle"],["Ġposi","tions"],["ĠEstim","ating"],["O","H"],["Ġ2","7"],["ip","s"],["Ġro","les"],["Ġf","u"],["ot","ing"],["u","racy"],["Ġobser","ved"],["ĠCom","b"],["Ġprecise","ly"],["ND","Q"],["c","lu"],["Ġprob","abilities"],["Ġconne","ctions"],["l","and"],["it","ect"],["Ġd","y"],["Ġintern","al"],["l","ock"],["Ġin","v"],["om","y"],["Ġpound","s"],["l","ife"],["ac","ed"],["Ġprodu","cing"],["ci","ent"],["Ġorgan","isms"],["Ġpa","per"],["Ġgener","ate"],["Ġmolecu","le"],["Ġrepresent","ations"],["chang","ed"],["\\",")."],["os","ph"],["Ġele","ment"],["6","4"],["Ġd","ays"],["Ġsatisf","ies"],["en","ing"],["Ġimpro","per"],["Ġcapac","ity"],["Ġb","act"],["ac","y"],["Ġfa","ce"],["Ġcy","l"],["Ġacc","uracy"],["........","........"],["Ġlibra","ry"],["\\","\\"],["v","f"],["Ġp","ublic"],["Ġcon","sequ"],["gor","ith"],["Ġbro","ad"],["Ins","ert"],["Ġc","and"],["Ġl","ist"],["ack","s"],["Ġmembra","ne"],["'",","],["der","iv"],["Ġs","ources"],["ri","or"],["Ġco","re"],["Ġg","all"],["Ġdec","omp"],["ĠC","irc"],["valu","es"],["ĠA","c"],["3","5"],["on","es"],["Ġw","aves"],["Ġimm","edi"],["R","ec"],["Ġreg","rouping"],["atis","tics"],["Ġrow","s"],["Ġal","k"],["ĠSec","ond"],["at","a"],["Ġbe","li"],["Ġang","ular"],["\\","]"],["ell","ing"],["Ġlos","s"],["Ġprofici","ent"],["ic","als"],["Ġredu","ce"],["Ġsug","ar"],["Ġch","rom"],["for","ward"],["Ġchem","istry"],["Ġcolum","ns"],["Ġcre","ated"],["ati","vity"],["Ġdispl","acement"],["Ġar","ter"],["l","a"],["Ġsp","read"],[")","|"],["G","et"],["Ġfac","ed"],["Ġcol","or"],["Ġoff","er"],["vi","ties"],["Ġconstraint","s"],["Ġopport","unities"],["ai","ly"],["Ġwhen","ever"],["Ġthin","king"],["Ġres","p"],["Ġne","ver"],["ti","ves"],["t","es"],["Ġd","ed"],["ĠEvalu","ating"],["og","en"],["Ġoff","ers"],["ĠPl","ace"],["ĠAng","le"],["ĠAB","C"],["Ġresear","chers"],["Ġc","ause"],["ra","ft"],["ĠD","raw"],["Ġsc","al"],["Ġexperi","ence"],["l","ong"],["pp","ed"],["Ġfa","st"],["Ġlogarith","ms"],["Ġstraight","forward"],["Ġmanip","ulation"],["Ġother","wise"],["Ġestim","ation"],["'","'("],["de","red"],["9","9"],["Â","³"],["Ġbot","tom"],["ĠHist","ory"],["Ġb","ag"],["du","c"],["Ġph","ase"],["Ġinfinite","ly"],["Ġint","erm"],["ĠT","otal"],["qqqqqqqq","qqqqqqqq"],["=","="],["al","pha"],["Ġsy","mpt"],["Ġlong","er"],["in","der"],["A","S"],["Ġfra","m"],["Ġax","es"],["Ġfl","our"],["Ġexte","nd"],["qu","are"],["et","al"],["ac","hed"],["Ġph","ot"],["Ġreflect","ing"],["Ġdepend","ent"],["Ġin","ner"],["an","cing"],["Ġden","s"],["ĠAcc","ording"],["Ġdispl","ay"],["Ġcon","j"],["iIiIiIiI","iIiIiIiI"],["p","a"],["Ġdec","ision"],["Ġcor","re"],["ysi","ology"],["Ġcentimet","ers"],["i","er"],["Ġin","ver"],["ec","onom"],["as","ing"],["Ġout","come"],["Ġinvest","ment"],["im","e"],["ĠT","y"],["Ġal","gorith"],["ab","ling"],["o","pe"],["yst","em"],["B","C"],["m","is"],["ĠĠĠĠ","ĠĠ"],["Ġp","ul"],["Ġright","s"],["Ġdens","ity"],["Ġle","ns"],["Ġsu","per"],["ĠMo","del"],["C","O"],["Ġs","low"],["Ġchapter","s"],["Ġapproxim","ate"],["Ġsurrou","nding"],["ig","uration"],["Ġsol","d"],["Ġmodel","ing"],["Ġdil","ation"],["h","and"],["}","+\\"],["in","ant"],["Ġanti","deriv"],["Ġm","ot"],["Ġen","abling"],["Ġpartic","les"],["Ġthe","ra"],["ĠS","lope"],["Ġgra","sp"],["mark","down"],["2","00"],["Ġdiff","er"],["Ġflu","id"],["Ġmus","cle"],["Ġmedic","ine"],["O","nce"],["ec","ause"],["Ġindic","ate"],["]","{"],["Ġcomplex","ity"],["Ġclose","ly"],["ĠDeterm","ining"],["Ġto","ward"],["Ġu","nd"],["Ġun","changed"],["âģ","¡"],["ĠC","ount"],["Ġsa","id"],["Ġcount","ing"],["Ġhig","hest"],["ĠR","ead"],["Ġhe","nce"],["Ġinter","act"],["Ġbl","ock"],["Ġfall","s"],["Ġdiscuss","ed"],["ve","led"],["ĠF","igure"],["as","h"],["Ġad","apt"],["Ġs","ound"],["mp","ling"],["n","egative"],["Ġstatis","tical"],["A","C"],["Ġf","ill"],["et","he"],["os","p"],["Ġsimilar","ity"],["Ġstate","ment"],["Ġstre","t"],["Ġapp","e"],["Ġ\\(","("],["Ġmonomial","s"],["Ġpers","pec"],["0000","0000"],["Ġd","aily"],["Ġan","n"],["Ġeconom","y"],["Ġevent","ually"],["c","irc"],["Ġst","age"],["ru","g"],["et","a"],["Ġeffici","ent"],["Ġarch","itect"],["lu","c"],["Ġhypot","hesis"],["ĠSimpl","ify"],["Ġwee","k"],["Ċ","ĠĠĠĠĠĠĠĠ"],["lu","gging"],["enc","ing"],["y","c"],["Ġc","rit"],["ethe","less"],["ect","ors"],["z","ed"],["til","ity"],["Ġ7","0"],["Ġtreat","ment"],["Ġimpro","ve"],["Ġsumm","ari"],["Ġrespon","sible"],["0","9"],["A","r"],["Ġl","oo"],["Ġgener","ally"],["Ġconf","iguration"],["Ġelim","inate"],["ĠA","b"],["ĠN","egative"],["Ġt","iss"],["Ġb","ill"],["Ġacid","s"],["Ġdemonst","rate"],["Ġt","aken"],["un","e"],["Ġens","ures"],["ĠC","D"],["Ġyour","self"],["ĠExample","s"],["ĠT","rig"],["Ġincor","por"],["Ġb","is"],[")^","{"],["ĠU","se"],["Ġrelative","ly"],["Ġar","ra"],["Ġinf","lation"],["Ġp","enc"],["ial","ly"],["for","ts"],["Ġv","es"],["iz","ations"],["Ġeffici","ency"],["ĠLim","its"],["Ġfav","or"],["3","2"],["Ġun","i"],["Ġresear","ch"],["Ġk","il"],["Ġoptim","al"],["Ġcharg","es"],["z","ation"],["Ġal","one"],["Ġcomple","mentary"],["Ġup","ward"],["Ġp","rior"],["Ġcomput","er"],["A","T"],["Ġl","iving"],["ĠSt","ep"],["Ġder","ive"],["Ġpas","ses"],["H","e"],["Ġthe","rm"],["Ġconc","rete"],["Ġban","k"],["0","5"],["Ġapproxim","ation"],["Ġobser","vation"],["o","ot"],["ĠA","D"],["Ġcaus","es"],["l","ish"],["m","od"],["Ġimp","lications"],["Ġshow","ing"],["q","K"],["u","le"],["Ġv","ital"],["Ġconsequ","ences"],["Ġcl","im"],["Ġem","b"],["Ġm","ere"],["Ġcontra","st"],["Ġr","igorous"],["Ġtrans","fer"],["Ġequal","ity"],["wh","ile"],["Ġsw","it"],["ĠAnalyz","ing"],["ce","ll"],["Ġpro","ced"],["Ġpresent","ed"],["R","e"],["m","ost"],["Ġca","pt"],["Ġprim","arily"],["Ġcomp","osition"],["Ġlarg","est"],["B","efore"],["Ġar","m"],["Ġcomple","ting"],["âĪ","Ĥ"],["Substit","uting"],["ter","m"],["Ġgover","ning"],["Ġm","icro"],["Ġn","av"],["Ġre","act"],["Ġstrateg","y"],["Ġmoment","um"],["+","("],["Ġvary","ing"],["Ġ2","8"],["v","b"],["ĠP","ar"],["Simpl","ifying"],["Ġ","}"],["Ġmon","th"],["P","re"],["Ġd","au"],["ĠSt","rateg"],["Ġen","z"],["Ġwe","ak"],["Ġdescrib","es"],["Ġrang","ing"],["Ġstre","ngth"],["Ġtra","veled"],["Ġover","l"],["ĠEqu","ation"],["Ġbor","row"],["I","f"],["Ġal","ter"],["Ġfunction","al"],["Ġpur","p"],["Ġthough","t"],["Ġmat","ch"],["]","."],["Ġerr","ors"],["Ġh","ar"],["Ġknow","ing"],["Ġrec","ur"],["ĠAl","though"],["Ġfac","es"],["Ġef","forts"],["in","a"],["Ġr","ough"],["Ġfin","ite"],["Ġunder","go"],["Ġgre","atest"],["Ġnumerator","s"],["Ġtechn","ology"],["E","qu"],["Ġcon","ve"],["Ġf","ul"],["el","f"],["Ġanal","y"],["Ġprote","in"],["}","-"],["in","k"],["Ġget","s"],["Ġtest","s"],["Ġâī","¤"],["Ġsa","les"],["Ġpo","st"],["ĠNon","etheless"],["Ċ","ĠĠĠ"],["ĠT","est"],["Ġdisc","on"],["Ġacc","ess"],["ĠJ","oh"],["C","F"],["^","(-"],["Ġt","ail"],["Ġe","duc"],["Ġcons","umption"],["iel","ding"],["r","um"],["Ġa","mpl"],["Ġstand","s"],["Ġexperim","ent"],["Ġas","se"],["ist","rib"],["tim","e"],["Ġcategor","ies"],["Ġse","lection"],["Ġd","t"],["Ġconf","id"],["Ġfactor","ization"],["olum","es"],["Ġass","ess"],["Ġs","ent"],["Ġcompound","s"],["Ġf","ederal"],["li","ers"],["Ġne","ither"],["Ġfocus","ing"],["Ġw","a"],["Ġconf","lic"],["MzMzMzMzMzMzMzMz","MzMzMzMzMzMzMzMz"],["o","y"],["Ġinhe","rent"],["b","b"],["Ġe","cos"],["Ġ3","2"],["ĠD","uring"],["Ġimag","inary"],["a","tically"],["m","i"],["o","tic"],["Ġu","nde"],["Ġoutput","s"],["Ġpossib","ilities"],["ĠW","he"],["Ġdem","oc"],["Ġextre","me"],["Ġcircu","it"],["a","ir"],["sec","utive"],["Ġsoci","ety"],["Ġlaw","s"],["ĠConver","t"],["g","n"],["Ġn","it"],["ĠS","et"],["^","{\\"],["Ġtrans","lation"],["ys","ics"],["ĠÃ","·"],["Ġsmo","oth"],["Ġre","aching"],["m","an"],["Ġacc","omp"],["Ġg","e"],["intercept","s"],["Ġrel","ig"],["Ġsa","f"],["Ġsympt","oms"],["T","otal"],["ĠI","mp"],["Ġver","ify"],["Ġ7","5"],["Ġarbitra","ry"],["Ġd","ynamics"],["Ġconf","ident"],["Ġqu","ar"],["Ġconfid","ently"],["Ġconclu","sions"],["Ġcommun","ication"],[")","$$"],["Ġadvant","age"],["w","ers"],["Ġcl","a"],["\\","*("],["\\",","],["Ġorient","ation"],["A","nd"],["b","ack"],["Ġl","ung"],["ig","id"],["ĠC","re"],["Ġcharacter","ized"],["Ġrele","vant"],["g","ing"],["ĠR","ati"],["Ġres","ist"],["Ġbas","is"],["Ġemp","has"],["Ġgroup","ing"],["Ġcorrect","ly"],["he","tic"],["enti","sts"],["Ġacti","vities"],["Ġg","rid"],["Ġtheore","tical"],["Ġm","ember"],["iti","z"],["[","\\"],["cul","atory"],["Ġpro","ject"],["ĠL","e"],["Ġequ","ally"],["Ġcongru","ence"],["____","____"],["ns","wer"],["ron","t"],["Ġeffec","tive"],["Ġu","pper"],["Ġcaus","ed"],["Ġexc","lu"],["Ġpict","ure"],["Ġli","qu"],["ĠG","ree"],["p","ies"],["pend","ent"],["lec","tive"],["Ġin","tim"],["Ġus","es"],["Ġstud","ent"],["pec","ially"],["Ġf","ost"],["ĠP","art"],["Ġcompe","tition"],["q","quad"],["Ġtrac","k"],["Ġt","urns"],["Ġo","x"],["oid","al"],["ĠDe","fin"],["as","ic"],["ĠR","ad"],["ce","les"],["Ġch","ild"],["os","celes"],["Ġprodu","ces"],["or","k"],["Ġperform","ance"],["Ġcon","secutive"],["res","sing"],["Ġv","ent"],["Ġcub","es"],["clu","sion"],["n","Z"],["o","di"],["Ġst","ore"],["Ġapp","lies"],["Ġevery","thing"],["Ġ-",">"],["Ġex","ceed"],["ĠS","e"],["qu","e"],[")",")^"],["il","on"],["Ġdown","ward"],["Ġf","if"],["Ġcons","er"],["Ġup","wards"],["Ġes","pecially"],["Ġm","ention"],["ĠDiv","ision"],["r","ates"],["ct","u"],["Ġquantit","ative"],["Wor","ked"],["S","imilar"],["Ġs","ource"],["ĠSt","ud"],["Ġtemper","atures"],["ak","ers"],["||||","||||"],["Ġsh","all"],["Ġquadril","ateral"],["ĠE","n"],["Ġd","rug"],["oc","y"],["ib","ility"],["Ġprot","ect"],["vers","al"],["Ġaim","ed"],["Ġle","d"],["ĠL","ine"],["ĠTrans","form"],["Ġro","b"],["io","qK"],["ograph","y"],["Ġslic","es"],["Ġcap","able"],["Ġconj","ug"],["en","ced"],["Ġsur","p"],["Ġbi","ology"],["Ġw","ish"],["Ġp","H"],["ord","ers"],["Ġcharact","ers"],["Ġcharg","ed"],["Ġmanage","able"],["Ġdiscon","tinu"],["Ġunde","fined"],["ĠL","CM"],["ĠN","e"],["Ġdetail","s"],["Ġl","a"],["eng","th"],["y","le"],["ĠV","is"],["Ġpot","entially"],["Ġconnect","ed"],["ĠGeomet","ry"],["Ġmarble","s"],["ĠTrig","onomet"],["Ġconver","gence"],["Ġse","en"],["Ġnot","ing"],["Ġdivide","nd"],["n","ch"],["Ġv","olumes"],["ric","t"],["nc","hes"],["}{","("],["ound","ing"],["Ġro","om"],["ĠCh","ang"],["ul","er"],["Ġdeep","en"],["Ġdiag","rams"],["Ġinterest","ing"],["ĠGraph","s"],["ĠA","T"],["tic","ians"],["Ġ2","1"],["Ġfin","ally"],["Ġgra","b"],["Ġ12","0"],["Ġasympt","otes"],["â","Ķ"],["Ġlimit","ed"],["Ġelectric","al"],["Ġconne","ction"],["Ġre","arrang"],["Ġst","ri"],["feren","ces"],["Ġed","ge"],["Th","rough"],["\\;\\;","\\;\\;"],["Ġnav","ig"],["Ġf","ru"],["Ġlike","ly"],["ten","sion"],["re","nc"],["Ġdisc","ip"],["Ġsymbol","s"],["Ġcho","ice"],["Ġtradition","al"],["Ġshap","ing"],["s","is"],["Ġe","y"],["Ġsc","atter"],["Pro","blem"],["he","l"],["P","j"],["Ġs","ke"],["Ġre","ly"],["Ġorgan","ic"],["align","ed"],["Ġinterpret","ation"],["ĠWhe","ther"],["ac","ro"],["Ġwant","s"],["Ġdiag","onal"],["oura","ge"],["a","h"],["ĠRead","ing"],["p","tion"],["Ġe","c"],["Ġor","dered"],["Ġem","o"],["ĠC","ir"],["Ġexpl","ain"],["Ġ$$","\\"],["Ġcult","ural"],["Ġrem","o"],["Ġpre","p"],["appro","x"],["b","ase"],["Ġs","al"],["âī","Ī"],["ol","ic"],["Ġsu","it"],["S","c"],["Ġcar","di"],["?","\","],["u","sion"],["Ġsp","aces"],["ĠEx","pl"],["ĠQuadra","tic"],["}",")^"],["Ġc","ivil"],["os","es"],["Ġdiscus","sion"],["Ġsuggest","s"],["ogn","izing"],["Ġexperi","ences"],["Ġmark","ed"],["ĠâĪ«","["],["Ġres","id"],["Ġvari","ation"],["Ġ5","00"],["v","it"],["&","\\"],["ĠC","ost"],["ĠĠĠĠ","ĠĠĠ"],["Ġdemonstr","ates"],["i","res"],["ve","re"],["r","ine"],["ĠA","ss"],["L","astly"],["Ġa","cting"],["Ġquoti","ents"],["3","4"],["Ġt","ro"],["Ġde","pic"],["Ġform","al"],["7","8"],["r","at"],["Ġal","le"],["Ġsci","entists"],["v","al"],["id","ating"],["ĠOb","jective"],["Ġpredic","tions"],["Ġpl","ant"],["Ġimmedi","ately"],["Ġper","c"],["alle","st"],["Ġdiv","ing"],["ĠO","ther"],["Ġallow","ed"],["Ġatte","mp"],["Ġa","st"],["Ġsimpl","ified"],["Ġcomparis","on"],["5","00"],["Ġaffect","s"],["Ġban","ks"],["s","ince"],["nt","s"],["+","/"],["}","_"],["os","ure"],["Rec","all"],["Ġmast","ery"],["Ġendpoint","s"],["Con","clusion"],["Ġe","p"],["pe","z"],["Ġins","titution"],["Ġadd","ress"],["Ġfrequ","ently"],["G","raph"],["Ġd","omin"],["Ġestim","ating"],["ĠSubstit","uting"],["G","eomet"],["Ġd","est"],["Ġser","vices"],["Ġass","ign"],["Ġs","ens"],["Ġman","agement"],["Ġins","cribed"],["Ġat","m"],["Ġarg","ument"],["F","rom"],["Multip","lying"],["Ġsu","s"],["Ġrel","ates"],["Ġsc","ores"],["Ġf","irms"],["Ġpartic","le"],["Ġabs","or"],["Ġm","x"],["Ġre","volution"],["Ġdec","ide"],["}^","{\\"],["Ġs","izes"],["Ġsu","st"],["si","a"],["Ġsp","ect"],["ĠSt","art"],["d","nZ"],["ric","al"],["Ġsell","ing"],["$",")"],["Ġop","tions"],["Ġdoll","ars"],["Ġspec","ified"],["Ġconsider","ation"],["Ġmill","ion"],["if","orm"],["ĠDifferen","ti"],["ic","tion"],["Ġnot","able"],["Ġpl","ants"],["ric","e"],["Ġpers","onal"],["ĠCons","titution"],["h","ood"],["Ġde","v"],["Ġsa","mpling"],["App","lying"],["Ġdau","nting"],["Ġtest","ing"],["ub","tra"],["e","led"],["Ġc","itiz"],["ĠPl","ot"],["Ġdraw","n"],["ol","i"],["Ġinf","lection"],["Ġ<","="],["osi","tive"],["h","old"],["if","est"],["ĠC","ent"],["Ġpolic","ies"],["Ġintersect","s"],["pa","ration"],["Ġb","lue"],["ar","ch"],["ollow","ing"],["Ġide","al"],["Ġans","wers"],["Ġperi","ods"],["Ġlab","el"],["Ġdr","iving"],["ĠA","f"],["ĠApp","ro"],["Ġsummari","ze"],["Ġus","ually"],["ative","ly"],["Ġso","on"],["Ġb","ring"],["Ġgra","vity"],["Ġref","lections"],["Ġbeg","an"],["Ġab","st"],["Ġround","ing"],["ĠConver","ting"],["Ġf","irm"],["Ġd","am"],["Ġreflect","s"],["âģ¡","("],["7","0"],["ĠĠĠĠĠĠĠĠ","ĠĠĠĠĠĠĠĠ"],["an","es"],["Ġch","lor"],["Ġcance","l"],["W","h"],["y","nt"],["ar","b"],["pl","ay"],["Ġgener","ated"],["Ġgre","at"],["Similar","ly"],["Ġb","ir"],["Ġfe","ed"],["Ġconsist","ing"],["m","ing"],["w","are"],["Ġn","ut"],["Ġsqua","red"],["Ġpiece","wise"],["Ġre","cept"],["Ġne","uro"],["co","hol"],["ĠEstim","ate"],["Ġextre","ma"],["oc","al"],["Ġperfect","ly"],["ric","ult"],["Ġrel","ation"],["Ġsimpl","ifying"],["Ġm","ir"],["res","sions"],["res","sive"],["Ġsubstit","uting"],["Î","²"],["Ġp","ack"],["Ġr","igid"],["ac","tive"],["Ġdevelop","ed"],["Ġsust","ain"],["9","8"],["a","e"],["i","ology"],["ĠL","ab"],["ĠAl","tern"],["}",".$$"],["ĠB","ecause"],["Ġfin","ance"],["ĠDec","imal"],["Ġves","sel"],["m","b"],["alle","l"],["Ġro","ad"],["Ġimp","lying"],["tra","ctor"],["om","an"],["un","ction"],["di","es"],["}\\",")"],["Ġclear","ly"],["Ġis","osceles"],["Ġ","#"],["Ġmo","de"],["ĠG","erm"],["ruct","ing"],["U","nderstanding"],["Ġ","imple"],["Ġh","om"],["ynam","ic"],["He","alth"],["ĠJoh","n"],["r","or"],["ing","u"],["Ġo","ld"],["ĠSt","atistics"],["Ġleg","s"],["Ġm","ach"],["ĠE","xt"],["ish","ing"],["Ġdis","p"],["Ġpers","ist"],["Ġre","aches"],["Ġeas","y"],["Ġclos","ed"],["A","nswer"],["b","W"],["Ġph","ysiology"],["Ġmention","ed"],["Ġcent","ered"],["anc","y"],["c","k"],["le","q"],["Ġqu","ite"],["Ġvari","ations"],["Ġreg","ression"],["Ġexperim","ental"],["Ġsm","allest"],["Ġinst","ances"],["Ġav","oid"],["Ġscal","ar"],["ons","es"],["Ġsuccessful","ly"],["ĠE","lect"],["crip","tion"],["o","ff"],["Ġsu","ff"],["ĠL","ike"],["Ġtas","k"],["ig","ma"],["Ġy","ielding"],["ro","gen"],["Ġ4","8"],["Ġhelp","ful"],["b","rid"],["ag","ed"],["Ġde","li"],["Ġimple","ment"],["ĠR","NA"],["ough","t"],["Ġexerc","ise"],["m","atrix"],["}","-\\"],["6","5"],["Ġchoo","sing"],["Ġfu","el"],["g","ent"],["re","p"],["ad","es"],["Ġac","ute"],["math","rm"],["Ġopport","unity"],["Ġ3","60"],["Ġsupp","le"],["Ġa","part"],["us","oidal"],["Ġlow","est"],["l","ined"],["Ġm","ess"],["ĠH","y"],["Ġh","ouse"],["rou","nd"],["Ġcount","ry"],["Ġprog","ress"],["me","nd"],["m","o"],["Ġd","one"],["ra","n"],["Ġar","ises"],["ĠT","ime"],["Ġdisc","ount"],["Ġeven","ly"],["Ġutili","ze"],["Ġreg","ulation"],["ĠSimpl","ifying"],["Ġnew","ly"],["Ġdeterm","ines"],["ffici","ent"],["Ġreg","ul"],["Ġj","ud"],["O","ur"],["Ġtransform","ed"],["Ġplu","g"],["i","pe"],["v","ale"],["Ġmin","ute"],["ĠAng","les"],["ĠB","e"],["Â°","."],["ĠDes","pite"],["Ġcand","id"],["iv","al"],["the","less"],["Ġasympt","ote"],["u","f"],["Ġpres","s"],["Ġocc","up"],["Ġphenomen","on"],["Ġdiscip","lines"],["Ġexist","ing"],["Ġre","li"],["Ġpro","tractor"],["4","8"],["Ġconst","ruction"],["N","ote"],["Ġdistrib","ute"],["Ġrapid","ly"],["Ad","ding"],["s","ubstit"],["ruct","ure"],["Ġexc","iting"],["Ġlit","er"],["Ġcomprehen","sion"],["Ġkine","tic"],["g","E"],["om","ing"],["itu","de"],["ĠRep","resent"],["Ġfa","ir"],["ĠPro","of"],["Ġappreci","ation"],["Ġful","ly"],["4","2"],["I","I"],["Ġn","ational"],["Ġv","ast"],["Ġour","selves"],["Ġhigh","ly"],["Ġthousand","s"],["on","ic"],["Ġrang","es"],["Ġrepe","ating"],["Ġbra","nches"],["Ġret","urns"],["----","--"],["Ġperiod","ic"],["mon","ary"],["ĠAf","ric"],["Ġor","bit"],["Ġcarry","ing"],["Ġeconom","ics"],["Ġbound","ary"],["ĠNew","ton"],["ĠC","E"],["ever","theless"],["ĠPro","blem"],["Ġdevelop","ing"],["Ġredu","ces"],["qysrK","Skr"],["Ġexam","ination"],["Ġmove","ments"],["ĠV","alu"],["ĠIdentify","ing"],["Ġspend","ing"],["Ġox","id"],["ru","ctions"],["for","ms"],["Ġid","entif"],["Sk","rK"],["Ġprom","oting"],["}\\","\\"],["Integ","rated"],["Ġbact","eria"],["Ġhar","mon"],["Ġs","q"],["Ġst","able"],["Ġconcer","ns"],["Ġsca","les"],["Ġfore","ign"],["Div","iding"],["Ġconcentration","s"],["Ġdemonstr","ated"],["ti","v"],["Ġe","ver"],["Ġal","though"],["Ġconver","ges"],["ĠRe","volution"],["Ġne","ur"],["Ġtri","p"],["Ġdisc","rim"],["Ġstruct","ural"],["Ġexerc","ises"],["h","al"],["Ġp","en"],["Ġat","tra"],["Ġsec","onds"],["Ġfund","s"],["in","for"],["Ġm","or"],["Ġcur","renc"],["Ġgra","du"],["Ġb","at"],["Ġbec","ame"],["in","o"],["er","ies"],["ag","on"],["ure","d"],["Ġra","ising"],["Ġsh","aring"],["Ġph","osph"],["Through","out"],["ĠA","mend"],["Ġprac","tices"],["ud","es"],["Ġcla","im"],["Ġdeb","t"],["Ġchrom","os"],["gE","gE"],["Ġmet","ric"],["olog","ies"],["Ġ[","-"],["Ġprof","ound"],["ĠModel","ing"],["Ġvent","ric"],["ĠN","evertheless"],["Ġsha","res"],["Ġwid","get"],["Ġtransl","ate"],["Ġan","imals"],["Ġmember","s"],["O","r"],["out","h"],["a","ut"],["Ġf","oot"],["Ġrep","lace"],["Ġ$","(\\"],["ari","ties"],["Ġinter","cepts"],["D","P"],["Ġb","r"],["Ġst","ru"],["ĠL","ength"],["âĢ","ĵ"],["ĠCong","ress"],["Ġexplicit","ly"],["Ġinterm","edi"],["Ġfast","er"],["Ġnut","ri"],["Ġac","qu"],["Ġdire","ctions"],["Ġfre","ed"],["Ġf","li"],["Ġimp","licit"],["Ġter","rit"],["math","bb"],["n","ers"],["it","or"],["Ġqu","art"],["ort","s"],["Ġreflect","ed"],["Ġbenef","its"],["Ġh","im"],["Ġv","ac"],["pi","ration"],["ĠStrateg","ies"],["tra","ns"],["Ġliqu","id"],["Ġsign","als"],["ĠRe","f"],["Ġbi","ological"],["ole","cular"],["ĠB","an"],["ĠD","ata"],["Ġgrow","s"],["pez","oid"],["'","."],["F","actor"],["Ġre","v"],["Ġrec","ord"],["Ġfriend","s"],["Ġcrit","eria"],["le","ngth"],["ou","n"],["id","den"],["Ġsec","ur"],["Ġheight","s"],["erv","ous"],["Ġre","ference"],["lo","y"],["hec","k"],["Ġrece","ive"],["2","6"],["et","her"],["Ġconsum","er"],["ĠMean","while"],["Ġgall","ons"],["Ġn","ull"],["Ġgraph","ical"],["Ġel","astic"],["8","9"],["ĠB","asic"],["ater","als"],["ĠCon","f"],["Ġris","ks"],["Ex","p"],["oo","se"],["Ġmechan","ism"],["$","-"],["Ġt","ick"],["Ġs","elf"],["or","ary"],["Ġhist","og"],["Ġ>","="],["Ġshad","ed"],["Ġcitiz","ens"],["P","h"],["Ġan","cient"],["ĠC","O"],["als","o"],["Ġop","tion"],["Ġoccur","ring"],["Ġflu","ctu"],["ĠComb","ining"],["d","iv"],["ĠC","our"],["Ġenh","ance"],["Ġvers","us"],["a","vity"],["Ġbe","long"],["app","ing"],["-","("],["em","ents"],["Ġprec","ision"],["rim","e"],["Ġs","en"],["ru","pt"],["m","ation"],["Ġa","ctions"],[")\\",")"],["Ġmanip","ulating"],["Ġresp","onses"],["Ġabst","ract"],["D","E"],["S","ubtra"],["Ġc","lu"],["Ġgrow","ing"],["Q","R"],["Ġre","verse"],["Ġ2","3"],["Ġatom","ic"],["Ġed","ges"],["Ġrough","ly"],["s","lope"],["Ġr","ich"],["Ġredu","ction"],["Ġtre","nd"],["Ġiss","ue"],["Ġt","ree"],["er","ve"],["Comp","aring"],["Ġded","u"],["Ġsu","n"],["Ġrec","ipe"],["Ġconstruct","ing"],["Ġbroad","er"],["u","ing"],["pe","ction"],["Ġban","an"],["os","sible"],["Ġcre","ates"],["Ġs","tim"],["ag","netic"],["ĠB","egin"],["Ġqu","ality"],["Ġfound","ations"],["Ġreve","al"],["E","D"],["b","eta"],["Ġc","raft"],["ĠS","quare"],["Ġsp","ent"],["Ġst","e"],["Ġinclu","ded"],["Ġne","ut"],["b","matrix"],["Ġg","ard"],["----","-"],["Ġhand","y"],["substit","ution"],["ĠN","o"],["--------","--"],["Ġso","ph"],["Ġfe","ar"],["ĠRec","ognizing"],["ĠA","m"],["Ġcalcul","ating"],["Ġrele","ase"],["ĠAmend","ment"],["D","es"],["i","ber"],["Ġag","ricult"],["qysrKSkr","qysrKSkr"],["Ġsoph","istic"],["Ġh","idden"],["Ġequ","ivale"],["Ġac","tive"],["Ġbi","odi"],["uf","act"],["Ġcount","ries"],["Ġ=",">"],["Ġinvest","ors"],["ĠDefin","ing"],["en","er"],["Ġâī","ł"],["Ġcontrib","uting"],["Ġexhib","its"],["mis","sion"],["Ġconser","vation"],["ol","ate"],["Ġsee","king"],["Ġ20","15"],["ĠJ","ust"],["d","frac"],["s","uch"],["Ġst","rict"],["Ġdi","e"],["Ġlimit","ations"],["O","n"],["Â","ł"],["ir","atory"],["ĠB","u"],["Ġmat","ches"],["ĠSpec","ial"],["Ġtack","ling"],["Ġp","y"],["ĠP","res"],["Ġsumm","ation"],["Ġintim","idating"],["Geomet","ry"],["Ġbiodi","versity"],["Ġpercent","ages"],["Ġmot","or"],["Ġt","ou"],["ĠP","re"],["Ġencount","ered"],["Ġcyl","inder"],["Ġd","im"],["Ġl","ack"],["Ġmon","ths"],["sc","ill"],["re","en"],["Ġlab","eled"],["ĠAr","ithmetic"],["Ġarrang","ed"],["Ġwa","it"],["Ġatm","osp"],["et","ary"],["il","ic"],["ĠD","em"],["Ġout","er"],["Ġcomplete","ly"],["Ġann","ual"],["A","gain"],["Ġinst","ant"],["ĠApp","lications"],["Ġtri","angular"],["Ġfinding","s"],["Ġcounter","part"],["The","re"],["d","a"],["%","."],["ĠDis","c"],["Ġrecur","sive"],["ĠN","a"],[")\\","*"],["Ġaffect","ing"],["Ġbra","in"],["ĠMeas","ure"],["Ġm","ist"],["Ġco","pies"],["Ġr","h"],["ast","e"],["Ġch","ann"],["Ġse","ems"],["Ġre","infor"],["ul","f"],["and","ard"],["Ġres","on"],["Ġhead","s"],["Ġins","pection"],["Ġprof","its"],["Ġmeaning","ful"],["Ġplay","ed"],["Ġantideriv","ative"],["g","ory"],["Ġc","red"],["ĠC","ur"],["Ġintrodu","cing"],["ric","tion"],["Ġconsum","ers"],["AAAAAAAAAAAAAAAAAAAAAAAAAAAAAAAA","AAAAAAAAAAAAAAAAAAAAAAAAAAAAAAAA"],["c","tivity"],["Ġex","cept"],["ĠDeriv","atives"],["Ġal","cohol"],["Ġno","vel"],["ĠEurope","an"],["or","izon"],["Ġapp","lic"],["Ġsolid","s"],["Ġpolyg","ons"],["Ġsupple","mentary"],["Ġm","ile"],["Ġu","tility"],["Ġchec","king"],["r","h"],["x","i"],["Ġex","ec"],["Ġ6","00"],["Ġnetwor","ks"],["Ġg","al"],["Ġman","ufact"],["ĠCh","ina"],["Ġfail","ure"],["Ġecos","ystems"],["0","1"],["en","z"],["---|---|","---|---|"],["Ġasse","ts"],["Ġag","g"],["and","ing"],["Ġvari","ance"],["Ġfrequ","encies"],["ĠAmeric","a"],["ĠY","our"],["Ġassum","ing"],["Ġpati","ents"],["{","{"],["Ġt","alk"],["Ġgra","vit"],["ph","i"],["ĠCir","culatory"],["ĠG","reat"],["Ġall","oc"],["Ġwork","ed"],["ĠS","uch"],["Ġra","y"],["Ġmin","us"],["Ġidentif","ied"],["ĠB","l"],["Ġestim","ates"],["i","xt"],["il","ing"],["ĠC","or"],["og","ether"],["ĠCon","nect"],["Ġwant","ed"],["Ġequil","ateral"],["ĠSc","ale"],["Ġn","th"],["Ġfound","ational"],["Ġsca","led"],["Ġtransi","tion"],["m","m"],["Ġcont","ract"],["Ġestim","ated"],["Ġexpand","ing"],["luc","ose"],["Ġhe","avi"],["Ġmathema","ticians"],["Ġsin","usoidal"],["?","\""],["Ġnon","negative"],["Ġname","ly"],["ĠAT","P"],["i","os"],["Ġb","atter"],["ew","ork"],["Ġreal","m"],["ĠConst","ructing"],["Ġalgorith","m"],["l","inear"],["Ġfor","th"],["Ġst","at"],["ĠR","o"],["ĠP","rice"],["Ġrem","ark"],["Ġland","sc"],["Ġstru","gg"],["s","ided"],["ĠA","ge"],["ĠN","ot"],["Ġun","iform"],["Ġtan","k"],["Ġ","ing"],["Ġ","ice"],["Ġtext","s"],["igh","b"],["Ġ$","|"],["ĠR","ounding"],["ĠAb","solute"],["D","i"],["Ġn","ine"],["Ġgra","di"],["Ġdis","orders"],["Ġcor","ner"],["ĠD","istrib"],["Ġdisc","rete"],["Ġmechan","ical"],["Des","pite"],["m","ol"],["Ġm","ilit"],["Ġar","ti"],["Ġcommon","ly"],["p","ro"],["Ġen","j"],["Ġclim","ate"],["ĠAppro","xim"],["Ġdi","versity"],["rang","e"],["Ġu","r"],["Ġare","n"],["ox","ide"],["Ġfew","er"],["Ġuni","verse"],["&","=\\"],["Ġten","sion"],["Ġdesign","ed"],["P","er"],["Ġb","x"],["Ġte","nds"],["ĠF","und"],["Ġemplo","ying"],["Ġrad","icals"],["Ġunc","over"],["2","10"],["Ġb","ud"],["ĠA","verage"],["Ġopen","ing"],["b","an"],["Ġfra","me"],["id","th"],["ab","ul"],["ĠC","ol"],["ĠR","ule"],["Ġbegin","s"],["Ġact","s"],["Ġdesign","ing"],["rat","ulations"],["t","op"],["Ġappreci","ate"],["Ġinn","ov"],["Ġrefer","red"],["P","T"],["u","ra"],["Ġsign","ifies"],["c","are"],["Ġc","ou"],["Ġn","arrow"],["et","ers"],["Ġne","ighb"],["Ġcl","ar"],["Ġindivid","ually"],["Ġtransl","ations"],["ĠFun","ction"],["ĠValu","e"],["k","y"],["Ġf","lo"],["Ġse","paration"],["ĠU","nder"],["Ġcontinu","es"],["Ġcate","gory"],["Ġloo","p"],["Ġa","ff"],["ĠI","ns"],[")",")."],["l","ig"],["Ġco","in"],["ĠP","lugging"],["Ġpe","ak"],["Equ","ation"],["f","aces"],["Ġdomain","s"],["Ġexte","nds"],["g","in"],["Ġp","us"],["ĠC","hemistry"],["Ġmed","ical"],["Ġcharacter","istic"],["Ġcat","al"],["Ġv","an"],["ĠS","ci"],["ĠEmp","ire"],["Ġl","in"],["ĠG","CF"],["Ġbegin","ning"],["Ġm","ental"],["Ġl","ate"],["Ġfour","th"],["c","alculus"],["it","ors"],["Ġcon","e"],["Ġcell","ular"],["Ġimm","une"],["um","ents"],["ĠTo","day"],["Ġgener","ating"],["ĠComp","are"],["Ġsophistic","ated"],["ra","ction"],["as","cular"],["Ġ4","2"],["Ġread","ers"],["Ġtiss","ue"],["Ġout","liers"],["Ġdifferenti","able"],["Ġacti","v"],["A","ng"],["i","pped"],["Ġ(","+"],["Ġwor","ry"],["n","et"],["ĉ","ĉ"],["ĠS","ystem"],["ser","ve"],["eth","od"],["Ġequivale","nce"],["O","T"],["Ġth","ing"],["Ġg","am"],["Ġstate","ments"],["Ġhighlight","s"],["Ġcorre","lation"],["g","round"],["ab","il"],["Ġaccount","ing"],["ĠMathema","tics"],["Ġeduc","ation"],["orizon","tal"],["lic","ity"],["|----|----","|----|----"],["ir","gin"],["Ġser","ving"],["Ġcontinu","ed"],["Ġsatisf","ying"],["ĠExpon","ents"],["Ġselect","ing"],["econom","ics"],["t","r"],["ro","ke"],["ĠS","he"],["oc","abul"],["ĠExp","ressions"],["1","000"],["Ġ2","2"],["ĠR","ight"],["ific","ations"],["ĠIn","c"],["Ġconc","avity"],["ĠWh","y"],["S","S"],["l","it"],["Ġb","on"],["ĠM","ac"],["Ġcont","act"],["Ġend","s"],["Ġevery","day"],["Ġdiag","on"],["Ġspecial","ized"],["Ġcho","ices"],["Ġmere","ly"],["Ġle","ave"],["Ġpl","aced"],["ĠBC","E"],["Ġbeli","e"],["3","7"],["l","lust"],["o","pt"],["Ġor","d"],[")\\",","],["Ġef","fort"],["ti","ble"],["ro","py"],["ĠÎ","¼"],["Ġdemonstr","ating"],["Ġle","aves"],["Ġ3","00"],["Ġpre","fer"],["Ġbra","nch"],["Ġperspec","tive"],["ĠS","u"],["Ġexp","en"],["Ġ20","1"],["Ġmast","er"],["Ġm","ount"],["um","er"],["Ġindepend","ence"],["it","ed"],["Ġal","ike"],["Ġst","ock"],["un","ately"],["----------------","------------"],["Ġhyper","bol"],["4","9"],["b","ility"],["Ġo","un"],["ĠN","or"],["Ġcross","es"],["Ġconjug","ate"],["\\",",\\"],["Ġj","ob"],["ĠâĪ","ŀ"],["Ġel","se"],["Ġtax","es"],["en","ari"],["se","ction"],["ur","ally"],["Ġeng","age"],["ĠPer","form"],["Ġgu","id"],["go","ing"],["Ġske","w"],["s","y"],["it","ation"],["if","t"],["Ġsign","al"],["Wor","ld"],["ocabul","ary"],["Ġ","?"],["Ġo","scill"],["de","g"],["lo","ad"],["Ġk","g"],["a","les"],["Ġch","ance"],["Ġsc","ore"],["Ġpress","ures"],["Ġc","ity"],["ĠC","ar"],["ĠC","ell"],["Ġsp","an"],["Ġexpres","sing"],["Ġconcer","ning"],["ĠLab","el"],["O","f"],["T","hen"],["Ġmat","ters"],["di","um"],["Ġsol","ved"],["Ġsystem","atically"],["Ġbanan","as"],["C","h"],["Ġ","ill"],["Ġd","ip"],["Ġco","ok"],["ĠD","istance"],["Ġdil","ations"],["Pro","of"],["N","S"],["Ġde","ath"],["am","er"],["ĠM","ed"],["Ġj","ump"],["Ġpop","ular"],["Int","roduction"],["ĠTransform","ations"],["Ġmilit","ary"],["Ġexp","lo"],["ĠB","ox"],["ĠD","C"],["Ġfe","ature"],["Int","er"],["sol","ving"],["valu","ed"],["Ġsample","s"],["Ġcult","ure"],["Ġperc","ents"],["..",".,"],["Ġdescrib","ing"],["Ġappe","ara"],["e","ties"],["Ġdet","ect"],["Ġbehavi","ors"],["VVVV","VVVV"],["Ġpul","monary"],["Ġwe","alth"],["lu","s"],["am","ent"],["ĠM","ark"],["Ġtra","pezoid"],["hem","ical"],["Ġgen","es"],["Ġpain","t"],["ĠMeas","uring"],["Ġinstitution","s"],["Ġd","ram"],["Ġev","ol"],["Ġcomp","r"],["of","t"],["Ġwho","les"],["Ġsec","re"],["Ġdown","wards"],["ĠExpon","ent"],["Ġstrong","er"],["Ġdemoc","racy"],["Ġres","ource"],["Ġtrig","g"],["Ġcurrenc","y"],["Ġst","o"],["Ġpart","y"],["Ġcontra","ction"],["5","6"],["c","hed"],["Ġwh","ite"],["ĠR","ed"],["Ġra","ys"],["Ġvari","ability"],["ix","ar"],["Ġhy","brid"],["ron","ic"],["Ġcommun","ities"],["Ġvessel","s"],["ĠA","ll"],["Ġr","out"],["Ġca","mp"],["Ġentire","ly"],["Ġpurch","ase"],["Ġbook","s"],["Ġampl","itude"],["Ġd","og"],["ig","en"],["Ġst","eep"],["os","ynt"],["ab","or"],["Ġ6","4"],["Ġsur","faces"],["Ġparamet","ers"],["Ġdam","age"],["Ġf","ront"],["Int","ro"],["Ġfreed","om"],["p","K"],["li","hood"],["Ġcomparis","ons"],["3","1"],["b","re"],["Ġexp","osure"],["ĠG","DP"],["Ġnecess","arily"],["ara","nt"],["Ġnit","rogen"],["b","ig"],["re","am"],["Ġs","ixt"],["Ġmet","al"],["Ġrot","ations"],["cell","ular"],["$",";"],["H","igh"],["t","bW"],["Ġpl","acing"],["Ġloc","ate"],["Ġindust","rial"],["Ġbud","get"],["a","mp"],["Ġg","lucose"],["ri","tis"],["ĠP","rodu"],["os","s"],["ox","y"],["Ġhand","le"],[")","*("],["el","low"],["enti","als"],["ens","ity"],["wor","k"],["Ġsepar","ated"],["Ġimpact","s"],["ar","ly"],["Ġcomp","ass"],["Ġinformation","al"],["ĠAmeric","ans"],["Ġv","ocabulary"],["Ġgain","ed"],["vale","nt"],["4","4"],["Ġa","de"],["Ġmet","ab"],["Ġquadril","aterals"],["Ġarra","y"],["Ġs","ector"],["Ġm","ort"],["ĠSol","utions"],["Ġfacilit","ate"],["Ġdiagn","osis"],["k","ary"],["Ġindepend","ently"],["llust","rative"],["Ġexperi","enced"],["Ġnucle","ar"],["C","omb"],["}","|"],["Ġc","e"],["Ġe","th"],["Ġ|","|"],["Ġget","ting"],["Ġlit","tle"],["enari","o"],[")","}\\"],["t","otal"],["ct","an"],["ler","osis"],["ĠCong","ru"],["Ġparamet","ric"],["Ġor","th"],["Ġst","ay"],["Ġst","ages"],["te","red"],["ÏĢ","r"],["i","od"],["Ġfam","ily"],["ad","der"],["lo","b"],["Ġimp","ossible"],["Ġim","ages"],["Ġhand","s"],["Ġexte","nding"],["ar","c"],["mp","h"],["Ġlike","lihood"],["Ġdiv","ides"],["Ġalgebraic","ally"],["Ġarrang","ement"],["ul","ated"],["Ġstart","s"],["Ġutili","zing"],["m","ultip"],["Ï","ī"],["en","ed"],["ĠF","ollowing"],["re","l"],["Ġver","sion"],["Ġsk","et"],["Ġenviron","ments"],["Ġcir","cul"],["}}}}","}}}}"],["Ġremark","able"],["8","7"],["Ġas","k"],["Ġj","us"],["Ġhealth","care"],["I","llustrative"],["Ġth","ick"],["ag","n"],["ĠC","ivil"],["Ġele","g"],["Ġfeed","back"],["Ġpr","iv"],["op","ol"],["Ġbo","dies"],["ec","tive"],["Ġsur","ve"],["Ġsimilar","ly"],["ĠPer","cent"],["Ġconflic","t"],["w","ith"],["Ġex","ten"],["ur","ies"],["od","es"],["Ġsign","aling"],["ym","es"],["min","ist"],["C","alculus"],["il","ding"],["Â°",")"],["Ġrecept","ors"],["Ġw","on"],["Ġch","ips"],["eg","a"],["tit","ude"],["Ġcl","ock"],["Ġgard","en"],["_","{\\"],["Ġt","ric"],["Ġad","ult"],["ĠR","ate"],["Ġshif","ting"],["Ġkil","omet"],["s","co"],["Ġh","ous"],["ur","in"],["Ġco","o"],["Ġ7","2"],["ĠDec","omp"],["Ġcircu","its"],["irgin","ia"],["at","omy"],["ent","y"],["Ġh","ope"],["Ġconver","sions"],["Ġgu","arant"],["Ġsuit","able"],["Ġs","aw"],["Ġw","ire"],["Ġac","cept"],["Ġincor","rect"],["at","o"],["Ġan","im"],["Ġrep","rodu"],["ĠSubtra","ct"],["Ġlay","ers"],["AT","CH"],["aut","y"],["Ġinstant","aneous"],["O","R"],["o","ch"],["Ġs","om"],["Ġon","going"],["Ġwork","ers"],["ĠFra","ction"],["Ġswit","ch"],["M","D"],["Ġ","ly"],["ĠSt","andard"],["Ġdist","ingu"],[")^","("],["ĠPro","por"],["Ġdiscus","sing"],["Ġpolyg","on"],["/","âĪĤ"],
[...]
